{
  "version": "1.0",
  "truncation": null,
  "padding": null,
  "added_tokens": [
    {
      "id": 0,
      "content": "[PAD]",
      "single_word": false,
      "lstrip": false,
      "rstrip": false,
      "normalized": false,
      "special": true
    },
    {
      "id": 1,
      "content": "[UNK]",
      "single_word": false,
      "lstrip": false,
      "rstrip": false,
      "normalized": false,
      "special": true
    },
    {
      "id": 2,
      "content": "[CLS]",
      "single_word": false,
      "lstrip": false,
      "rstrip": false,
      "normalized": false,
      "special": true
    },
    {
      "id": 3,
      "content": "[SEP]",
      "single_word": false,
      "lstrip": false,
      "rstrip": false,
      "normalized": false,
      "special": true
    },
    {
      "id": 4,
      "content": "[MASK]",
      "single_word": false,
      "lstrip": false,
      "rstrip": false,
      "normalized": false,
      "special": true
    }
  ],
  "normalizer": null,
  "pre_tokenizer": {
    "type": "Whitespace"
  },
  "post_processor": null,
  "decoder": null,
  "model": {
    "type": "BPE",
    "dropout": null,
    "unk_token": null,
    "continuing_subword_prefix": null,
    "end_of_word_suffix": null,
    "fuse_unk": false,
    "byte_fallback": false,
    "ignore_merges": false,
    "vocab": {
      "[PAD]": 0,
      "[UNK]": 1,
      "[CLS]": 2,
      "[SEP]": 3,
      "[MASK]": 4,
      "\"": 5,
      "$": 6,
      "%": 7,
      "&": 8,
      "'": 9,
      "+": 10,
      ",": 11,
      "-": 12,
      "/": 13,
      "0": 14,
      "1": 15,
      "2": 16,
      "3": 17,
      "4": 18,
      "5": 19,
      "6": 20,
      "7": 21,
      "8": 22,
      "9": 23,
      ":": 24,
      ";": 25,
      "a": 26,
      "b": 27,
      "c": 28,
      "d": 29,
      "e": 30,
      "f": 31,
      "g": 32,
      "h": 33,
      "i": 34,
      "j": 35,
      "k": 36,
      "l": 37,
      "m": 38,
      "n": 39,
      "o": 40,
      "p": 41,
      "q": 42,
      "r": 43,
      "s": 44,
      "t": 45,
      "u": 46,
      "v": 47,
      "w": 48,
      "x": 49,
      "y": 50,
      "z": 51,
      "­": 52,
      "°": 53,
      "é": 54,
      "ï": 55,
      "ú": 56,
      "ü": 57,
      "–": 58,
      "—": 59,
      "‘": 60,
      "’": 61,
      "₂": 62,
      "€": 63,
      "th": 64,
      "ou": 65,
      "to": 66,
      "in": 67,
      "re": 68,
      "you": 69,
      "the": 70,
      "at": 71,
      "an": 72,
      "is": 73,
      "on": 74,
      "ve": 75,
      "he": 76,
      "me": 77,
      "ing": 78,
      "as": 79,
      "ed": 80,
      "ll": 81,
      "it": 82,
      "or": 83,
      "en": 84,
      "st": 85,
      "er": 86,
      "ar": 87,
      "le": 88,
      "no": 89,
      "do": 90,
      "tom": 91,
      "ha": 92,
      "that": 93,
      "we": 94,
      "be": 95,
      "wh": 96,
      "id": 97,
      "se": 98,
      "ke": 99,
      "of": 100,
      "ay": 101,
      "ld": 102,
      "li": 103,
      "go": 104,
      "ch": 105,
      "ver": 106,
      "are": 107,
      "don": 108,
      "this": 109,
      "ro": 110,
      "have": 111,
      "was": 112,
      "al": 113,
      "ho": 114,
      "all": 115,
      "gh": 116,
      "for": 117,
      "lo": 118,
      "wi": 119,
      "ne": 120,
      "ant": 121,
      "now": 122,
      "my": 123,
      "what": 124,
      "ti": 125,
      "ri": 126,
      "can": 127,
      "so": 128,
      "es": 129,
      "your": 130,
      "ad": 131,
      "one": 132,
      "co": 133,
      "ght": 134,
      "ge": 135,
      "ould": 136,
      "did": 137,
      "want": 138,
      "ce": 139,
      "out": 140,
      "te": 141,
      "know": 142,
      "and": 143,
      "ly": 144,
      "un": 145,
      "thing": 146,
      "ab": 147,
      "us": 148,
      "very": 149,
      "not": 150,
      "ac": 151,
      "here": 152,
      "like": 153,
      "bo": 154,
      "any": 155,
      "mo": 156,
      "ink": 157,
      "with": 158,
      "pp": 159,
      "ok": 160,
      "fe": 161,
      "she": 162,
      "pe": 163,
      "su": 164,
      "im": 165,
      "ter": 166,
      "how": 167,
      "ake": 168,
      "tr": 169,
      "think": 170,
      "ther": 171,
      "ir": 172,
      "ust": 173,
      "ic": 174,
      "some": 175,
      "they": 176,
      "ain": 177,
      "wor": 178,
      "get": 179,
      "day": 180,
      "ent": 181,
      "ion": 182,
      "his": 183,
      "time": 184,
      "there": 185,
      "ple": 186,
      "if": 187,
      "sh": 188,
      "ut": 189,
      "up": 190,
      "pl": 191,
      "end": 192,
      "od": 193,
      "mar": 194,
      "am": 195,
      "ur": 196,
      "him": 197,
      "about": 198,
      "de": 199,
      "sa": 200,
      "were": 201,
      "didn": 202,
      "her": 203,
      "ong": 204,
      "po": 205,
      "see": 206,
      "way": 207,
      "need": 208,
      "every": 209,
      "ally": 210,
      "ag": 211,
      "ate": 212,
      "going": 213,
      "ex": 214,
      "sto": 215,
      "ry": 216,
      "happ": 217,
      "will": 218,
      "let": 219,
      "ye": 220,
      "ss": 221,
      "has": 222,
      "nt": 223,
      "ind": 224,
      "ist": 225,
      "would": 226,
      "who": 227,
      "red": 228,
      "why": 229,
      "had": 230,
      "look": 231,
      "pro": 232,
      "ak": 233,
      "come": 234,
      "just": 235,
      "ive": 236,
      "work": 237,
      "could": 238,
      "alk": 239,
      "ought": 240,
      "should": 241,
      "fo": 242,
      "ard": 243,
      "ight": 244,
      "ul": 245,
      "con": 246,
      "qu": 247,
      "ast": 248,
      "mary": 249,
      "hel": 250,
      "ase": 251,
      "good": 252,
      "help": 253,
      "read": 254,
      "ame": 255,
      "ill": 256,
      "whe": 257,
      "does": 258,
      "where": 259,
      "got": 260,
      "our": 261,
      "com": 262,
      "tell": 263,
      "ren": 264,
      "more": 265,
      "ra": 266,
      "than": 267,
      "der": 268,
      "dy": 269,
      "per": 270,
      "ack": 271,
      "art": 272,
      "ble": 273,
      "when": 274,
      "el": 275,
      "by": 276,
      "oun": 277,
      "take": 278,
      "fro": 279,
      "au": 280,
      "ree": 281,
      "il": 282,
      "really": 283,
      "ct": 284,
      "from": 285,
      "ave": 286,
      "ep": 287,
      "wn": 288,
      "fa": 289,
      "new": 290,
      "ation": 291,
      "af": 292,
      "ide": 293,
      "fri": 294,
      "ck": 295,
      "sp": 296,
      "been": 297,
      "eve": 298,
      "never": 299,
      "pre": 300,
      "talk": 301,
      "please": 302,
      "ous": 303,
      "make": 304,
      "mu": 305,
      "say": 306,
      "thought": 307,
      "friend": 308,
      "gu": 309,
      "happen": 310,
      "too": 311,
      "jo": 312,
      "spe": 313,
      "ish": 314,
      "ound": 315,
      "something": 316,
      "lf": 317,
      "long": 318,
      "ol": 319,
      "car": 320,
      "ask": 321,
      "much": 322,
      "won": 323,
      "ten": 324,
      "home": 325,
      "ine": 326,
      "but": 327,
      "eat": 328,
      "able": 329,
      "off": 330,
      "right": 331,
      "ting": 332,
      "row": 333,
      "isn": 334,
      "ice": 335,
      "back": 336,
      "ig": 337,
      "body": 338,
      "bu": 339,
      "cho": 340,
      "give": 341,
      "mb": 342,
      "wr": 343,
      "man": 344,
      "ite": 345,
      "love": 346,
      "try": 347,
      "wo": 348,
      "self": 349,
      "anything": 350,
      "last": 351,
      "ning": 352,
      "oney": 353,
      "di": 354,
      "ort": 355,
      "sure": 356,
      "lot": 357,
      "book": 358,
      "night": 359,
      "money": 360,
      "ang": 361,
      "bus": 362,
      "care": 363,
      "feel": 364,
      "other": 365,
      "ough": 366,
      "bet": 367,
      "wat": 368,
      "doesn": 369,
      "under": 370,
      "stu": 371,
      "rench": 372,
      "app": 373,
      "french": 374,
      "mis": 375,
      "again": 376,
      "mad": 377,
      "pr": 378,
      "ful": 379,
      "told": 380,
      "hed": 381,
      "gl": 382,
      "ap": 383,
      "ild": 384,
      "ople": 385,
      "people": 386,
      "stay": 387,
      "fi": 388,
      "fore": 389,
      "ans": 390,
      "ready": 391,
      "om": 392,
      "ried": 393,
      "stand": 394,
      "ty": 395,
      "speak": 396,
      "today": 397,
      "live": 398,
      "many": 399,
      "dr": 400,
      "still": 401,
      "wa": 402,
      "tion": 403,
      "call": 404,
      "rest": 405,
      "pen": 406,
      "must": 407,
      "ouse": 408,
      "said": 409,
      "room": 410,
      "ess": 411,
      "ach": 412,
      "tle": 413,
      "ick": 414,
      "wait": 415,
      "only": 416,
      "est": 417,
      "made": 418,
      "ving": 419,
      "ass": 420,
      "doing": 421,
      "may": 422,
      "old": 423,
      "house": 424,
      "play": 425,
      "ment": 426,
      "ways": 427,
      "leave": 428,
      "cle": 429,
      "beli": 430,
      "year": 431,
      "clo": 432,
      "lit": 433,
      "urn": 434,
      "age": 435,
      "over": 436,
      "ure": 437,
      "wer": 438,
      "lu": 439,
      "always": 440,
      "dis": 441,
      "orrow": 442,
      "down": 443,
      "better": 444,
      "ted": 445,
      "believe": 446,
      "tru": 447,
      "child": 448,
      "happy": 449,
      "went": 450,
      "br": 451,
      "ie": 452,
      "ft": 453,
      "mber": 454,
      "them": 455,
      "everything": 456,
      "ear": 457,
      "ever": 458,
      "bro": 459,
      "before": 460,
      "hand": 461,
      "used": 462,
      "well": 463,
      "after": 464,
      "hard": 465,
      "little": 466,
      "put": 467,
      "came": 468,
      "blem": 469,
      "problem": 470,
      "scho": 471,
      "school": 472,
      "job": 473,
      "sho": 474,
      "plan": 475,
      "turn": 476,
      "ster": 477,
      "left": 478,
      "ts": 479,
      "sit": 480,
      "done": 481,
      "che": 482,
      "late": 483,
      "buy": 484,
      "wanted": 485,
      "understand": 486,
      "tomorrow": 487,
      "leep": 488,
      "use": 489,
      "dog": 490,
      "three": 491,
      "wee": 492,
      "gre": 493,
      "sed": 494,
      "quest": 495,
      "stop": 496,
      "fin": 497,
      "hope": 498,
      "find": 499,
      "nothing": 500,
      "son": 501,
      "father": 502,
      "dif": 503,
      "keep": 504,
      "happened": 505,
      "mas": 506,
      "ru": 507,
      "ated": 508,
      "ance": 509,
      "ci": 510,
      "these": 511,
      "enough": 512,
      "question": 513,
      "whi": 514,
      "start": 515,
      "sor": 516,
      "mor": 517,
      "into": 518,
      "most": 519,
      "act": 520,
      "cau": 521,
      "win": 522,
      "part": 523,
      "ph": 524,
      "gr": 525,
      "two": 526,
      "yester": 527,
      "yesterday": 528,
      "mon": 529,
      "hur": 530,
      "week": 531,
      "chr": 532,
      "tor": 533,
      "alone": 534,
      "sur": 535,
      "ner": 536,
      "ved": 537,
      "christ": 538,
      "christmas": 539,
      "drink": 540,
      "xt": 541,
      "seem": 542,
      "sorry": 543,
      "ity": 544,
      "pa": 545,
      "dre": 546,
      "everyone": 547,
      "dec": 548,
      "door": 549,
      "mee": 550,
      "friends": 551,
      "saw": 552,
      "things": 553,
      "bed": 554,
      "ange": 555,
      "port": 556,
      "reme": 557,
      "aren": 558,
      "asked": 559,
      "wasn": 560,
      "vis": 561,
      "tic": 562,
      "away": 563,
      "pare": 564,
      "ow": 565,
      "ose": 566,
      "wrong": 567,
      "la": 568,
      "pt": 569,
      "show": 570,
      "next": 571,
      "med": 572,
      "irst": 573,
      "cat": 574,
      "name": 575,
      "sing": 576,
      "ston": 577,
      "par": 578,
      "acc": 579,
      "mind": 580,
      "sleep": 581,
      "boston": 582,
      "walk": 583,
      "anyone": 584,
      "hear": 585,
      "ary": 586,
      "fun": 587,
      "already": 588,
      "soon": 589,
      "ers": 590,
      "fic": 591,
      "open": 592,
      "kind": 593,
      "busy": 594,
      "min": 595,
      "life": 596,
      "ence": 597,
      "bad": 598,
      "ace": 599,
      "bre": 600,
      "idea": 601,
      "mat": 602,
      "bl": 603,
      "ser": 604,
      "children": 605,
      "cre": 606,
      "irl": 607,
      "first": 608,
      "bit": 609,
      "rain": 610,
      "knew": 611,
      "list": 612,
      "girl": 613,
      "side": 614,
      "iz": 615,
      "ious": 616,
      "haven": 617,
      "mother": 618,
      "tired": 619,
      "their": 620,
      "without": 621,
      "yet": 622,
      "looking": 623,
      "cer": 624,
      "pris": 625,
      "dri": 626,
      "watch": 627,
      "sent": 628,
      "arn": 629,
      "fam": 630,
      "mp": 631,
      "light": 632,
      "answer": 633,
      "water": 634,
      "remember": 635,
      "comp": 636,
      "being": 637,
      "thank": 638,
      "raid": 639,
      "afraid": 640,
      "ily": 641,
      "found": 642,
      "took": 643,
      "lost": 644,
      "supp": 645,
      "gave": 646,
      "heard": 647,
      "couldn": 648,
      "best": 649,
      "big": 650,
      "inte": 651,
      "eas": 652,
      "interest": 653,
      "morning": 654,
      "mist": 655,
      "seen": 656,
      "int": 657,
      "ible": 658,
      "teac": 659,
      "years": 660,
      "same": 661,
      "ull": 662,
      "ult": 663,
      "else": 664,
      "often": 665,
      "ys": 666,
      "run": 667,
      "plain": 668,
      "mer": 669,
      "beg": 670,
      "wish": 671,
      "nts": 672,
      "pect": 673,
      "teacher": 674,
      "phone": 675,
      "aking": 676,
      "str": 677,
      "cold": 678,
      "word": 679,
      "someone": 680,
      "hi": 681,
      "pic": 682,
      "cl": 683,
      "train": 684,
      "cause": 685,
      "pay": 686,
      "looks": 687,
      "dent": 688,
      "person": 689,
      "des": 690,
      "fast": 691,
      "days": 692,
      "ath": 693,
      "bor": 694,
      "place": 695,
      "ies": 696,
      "parents": 697,
      "ished": 698,
      "les": 699,
      "even": 700,
      "ident": 701,
      "youn": 702,
      "pret": 703,
      "bab": 704,
      "ually": 705,
      "fee": 706,
      "times": 707,
      "pain": 708,
      "yourself": 709,
      "arm": 710,
      "lt": 711,
      "ount": 712,
      "mistake": 713,
      "study": 714,
      "less": 715,
      "knows": 716,
      "sm": 717,
      "few": 718,
      "pri": 719,
      "ail": 720,
      "true": 721,
      "cont": 722,
      "myself": 723,
      "promis": 724,
      "party": 725,
      "might": 726,
      "young": 727,
      "bought": 728,
      "doc": 729,
      "both": 730,
      "ket": 731,
      "swi": 732,
      "coming": 733,
      "learn": 734,
      "hour": 735,
      "men": 736,
      "wear": 737,
      "getting": 738,
      "nice": 739,
      "swim": 740,
      "air": 741,
      "head": 742,
      "wonder": 743,
      "everybody": 744,
      "around": 745,
      "talking": 746,
      "glad": 747,
      "break": 748,
      "listen": 749,
      "hun": 750,
      "surpris": 751,
      "great": 752,
      "change": 753,
      "anymore": 754,
      "dress": 755,
      "food": 756,
      "brother": 757,
      "matter": 758,
      "ign": 759,
      "ced": 760,
      "ise": 761,
      "student": 762,
      "poss": 763,
      "while": 764,
      "hair": 765,
      "kid": 766,
      "ince": 767,
      "wouldn": 768,
      "ju": 769,
      "early": 770,
      "vor": 771,
      "wants": 772,
      "another": 773,
      "nobody": 774,
      "those": 775,
      "flo": 776,
      "because": 777,
      "lice": 778,
      "diffic": 779,
      "almost": 780,
      "expect": 781,
      "mov": 782,
      "each": 783,
      "ister": 784,
      "table": 785,
      "tried": 786,
      "je": 787,
      "own": 788,
      "full": 789,
      "hurt": 790,
      "truth": 791,
      "married": 792,
      "import": 793,
      "letter": 794,
      "jap": 795,
      "japan": 796,
      "boy": 797,
      "pped": 798,
      "doctor": 799,
      "din": 800,
      "toge": 801,
      "together": 802,
      "cof": 803,
      "sk": 804,
      "coffee": 805,
      "trust": 806,
      "ited": 807,
      "du": 808,
      "cess": 809,
      "such": 810,
      "arri": 811,
      "trying": 812,
      "smo": 813,
      "forget": 814,
      "write": 815,
      "engl": 816,
      "died": 817,
      "easy": 818,
      "set": 819,
      "fr": 820,
      "tonight": 821,
      "inv": 822,
      "anger": 823,
      "seems": 824,
      "shouldn": 825,
      "mean": 826,
      "working": 827,
      "joy": 828,
      "diffe": 829,
      "family": 830,
      "yes": 831,
      "beau": 832,
      "beauti": 833,
      "ses": 834,
      "police": 835,
      "mine": 836,
      "vo": 837,
      "sat": 838,
      "once": 839,
      "sister": 840,
      "beautiful": 841,
      "english": 842,
      "ank": 843,
      "met": 844,
      "spend": 845,
      "rent": 846,
      "writ": 847,
      "oud": 848,
      "waiting": 849,
      "lat": 850,
      "llow": 851,
      "meeting": 852,
      "ip": 853,
      "cook": 854,
      "ture": 855,
      "sha": 856,
      "sun": 857,
      "enjoy": 858,
      "books": 859,
      "kill": 860,
      "important": 861,
      "far": 862,
      "which": 863,
      "difficult": 864,
      "sound": 865,
      "king": 866,
      "sc": 867,
      "pretty": 868,
      "dinner": 869,
      "picture": 870,
      "luck": 871,
      "since": 872,
      "adv": 873,
      "meet": 874,
      "dow": 875,
      "close": 876,
      "ason": 877,
      "started": 878,
      "drive": 879,
      "possible": 880,
      "lic": 881,
      "longer": 882,
      "likes": 883,
      "world": 884,
      "ian": 885,
      "led": 886,
      "sen": 887,
      "careful": 888,
      "miss": 889,
      "pass": 890,
      "felt": 891,
      "lau": 892,
      "tri": 893,
      "bir": 894,
      "press": 895,
      "cus": 896,
      "unch": 897,
      "fire": 898,
      "ided": 899,
      "hate": 900,
      "nu": 901,
      "window": 902,
      "accident": 903,
      "ather": 904,
      "anybody": 905,
      "turned": 906,
      "cor": 907,
      "ps": 908,
      "lve": 909,
      "station": 910,
      "log": 911,
      "questions": 912,
      "mus": 913,
      "wife": 914,
      "cert": 915,
      "ces": 916,
      "sick": 917,
      "favor": 918,
      "ste": 919,
      "looked": 920,
      "ot": 921,
      "finished": 922,
      "gone": 923,
      "movie": 924,
      "chang": 925,
      "ger": 926,
      "mit": 927,
      "park": 928,
      "ars": 929,
      "aught": 930,
      "danger": 931,
      "forgot": 932,
      "quite": 933,
      "surprised": 934,
      "free": 935,
      "zy": 936,
      "safe": 937,
      "follow": 938,
      "unti": 939,
      "cked": 940,
      "fish": 941,
      "near": 942,
      "ca": 943,
      "hu": 944,
      "lunch": 945,
      "op": 946,
      "arge": 947,
      "reason": 948,
      "ating": 949,
      "ction": 950,
      "stup": 951,
      "until": 952,
      "agree": 953,
      "small": 954,
      "suc": 955,
      "den": 956,
      "exact": 957,
      "class": 958,
      "noon": 959,
      "stupid": 960,
      "ward": 961,
      "reading": 962,
      "ize": 963,
      "promise": 964,
      "law": 965,
      "fer": 966,
      "weather": 967,
      "tv": 968,
      "ute": 969,
      "ouble": 970,
      "story": 971,
      "month": 972,
      "rough": 973,
      "osed": 974,
      "serious": 975,
      "having": 976,
      "die": 977,
      "makes": 978,
      "broke": 979,
      "worry": 980,
      "gg": 981,
      "si": 982,
      "office": 983,
      "music": 984,
      "cr": 985,
      "explain": 986,
      "angry": 987,
      "sug": 988,
      "coun": 989,
      "game": 990,
      "hat": 991,
      "ycle": 992,
      "thir": 993,
      "allow": 994,
      "low": 995,
      "ago": 996,
      "ta": 997,
      "hung": 998,
      "guess": 999,
      "high": 1000,
      "road": 1001,
      "utes": 1002,
      "tre": 1003,
      "ball": 1004,
      "ob": 1005,
      "als": 1006,
      "supposed": 1007,
      "dro": 1008,
      "fect": 1009,
      "iness": 1010,
      "minutes": 1011,
      "eyes": 1012,
      "yours": 1013,
      "cond": 1014,
      "res": 1015,
      "usually": 1016,
      "says": 1017,
      "feeling": 1018,
      "bring": 1019,
      "att": 1020,
      "called": 1021,
      "decided": 1022,
      "exactly": 1023,
      "cut": 1024,
      "fell": 1025,
      "present": 1026,
      "eating": 1027,
      "appo": 1028,
      "ient": 1029,
      "form": 1030,
      "begin": 1031,
      "pat": 1032,
      "playing": 1033,
      "hours": 1034,
      "ding": 1035,
      "ital": 1036,
      "hot": 1037,
      "himself": 1038,
      "town": 1039,
      "sal": 1040,
      "clean": 1041,
      "probab": 1042,
      "snow": 1043,
      "war": 1044,
      "its": 1045,
      "exc": 1046,
      "ched": 1047,
      "vi": 1048,
      "cost": 1049,
      "hor": 1050,
      "secre": 1051,
      "trouble": 1052,
      "chance": 1053,
      "kis": 1054,
      "song": 1055,
      "sum": 1056,
      "students": 1057,
      "probably": 1058,
      "ny": 1059,
      "aw": 1060,
      "ele": 1061,
      "ark": 1062,
      "gest": 1063,
      "later": 1064,
      "alth": 1065,
      "aust": 1066,
      "bic": 1067,
      "conf": 1068,
      "ven": 1069,
      "afternoon": 1070,
      "ross": 1071,
      "number": 1072,
      "interested": 1073,
      "through": 1074,
      "comple": 1075,
      "cons": 1076,
      "rali": 1077,
      "australi": 1078,
      "ran": 1079,
      "needs": 1080,
      "tree": 1081,
      "kept": 1082,
      "cra": 1083,
      "different": 1084,
      "bicycle": 1085,
      "australia": 1086,
      "tall": 1087,
      "test": 1088,
      "ship": 1089,
      "quick": 1090,
      "inter": 1091,
      "hurry": 1092,
      "cent": 1093,
      "lan": 1094,
      "spo": 1095,
      "news": 1096,
      "interesting": 1097,
      "country": 1098,
      "outside": 1099,
      "caught": 1100,
      "advice": 1101,
      "scare": 1102,
      "tely": 1103,
      "dead": 1104,
      "ouch": 1105,
      "nei": 1106,
      "tive": 1107,
      "figu": 1108,
      "arrived": 1109,
      "cry": 1110,
      "langu": 1111,
      "gen": 1112,
      "case": 1113,
      "taking": 1114,
      "ef": 1115,
      "unk": 1116,
      "weren": 1117,
      "proud": 1118,
      "count": 1119,
      "ese": 1120,
      "key": 1121,
      "quit": 1122,
      "cap": 1123,
      "thinking": 1124,
      "ali": 1125,
      "against": 1126,
      "dream": 1127,
      "hungry": 1128,
      "hind": 1129,
      "pu": 1130,
      "pick": 1131,
      "tele": 1132,
      "exam": 1133,
      "lose": 1134,
      "behind": 1135,
      "catch": 1136,
      "ber": 1137,
      "reci": 1138,
      "then": 1139,
      "ision": 1140,
      "box": 1141,
      "needed": 1142,
      "lives": 1143,
      "hands": 1144,
      "ring": 1145,
      "moment": 1146,
      "visit": 1147,
      "wine": 1148,
      "ately": 1149,
      "decision": 1150,
      "lle": 1151,
      "maybe": 1152,
      "company": 1153,
      "uter": 1154,
      "become": 1155,
      "hold": 1156,
      "00": 1157,
      "saying": 1158,
      "finish": 1159,
      "secret": 1160,
      "making": 1161,
      "lie": 1162,
      "breakfast": 1163,
      "exper": 1164,
      "born": 1165,
      "ject": 1166,
      "build": 1167,
      "computer": 1168,
      "sive": 1169,
      "choice": 1170,
      "changed": 1171,
      "homework": 1172,
      "shoes": 1173,
      "ked": 1174,
      "ended": 1175,
      "face": 1176,
      "city": 1177,
      "ref": 1178,
      "thes": 1179,
      "thanks": 1180,
      "favorite": 1181,
      "real": 1182,
      "living": 1183,
      "hosp": 1184,
      "clear": 1185,
      "uation": 1186,
      "cour": 1187,
      "heart": 1188,
      "advis": 1189,
      "short": 1190,
      "um": 1191,
      "expen": 1192,
      "complain": 1193,
      "fix": 1194,
      "trave": 1195,
      "business": 1196,
      "deal": 1197,
      "laugh": 1198,
      "appreci": 1199,
      "summer": 1200,
      "daught": 1201,
      "pie": 1202,
      "baby": 1203,
      "perfect": 1204,
      "order": 1205,
      "cept": 1206,
      "pping": 1207,
      "plane": 1208,
      "lucky": 1209,
      "ton": 1210,
      "river": 1211,
      "bi": 1212,
      "cup": 1213,
      "large": 1214,
      "rect": 1215,
      "ash": 1216,
      "situation": 1217,
      "clothes": 1218,
      "dark": 1219,
      "somebody": 1220,
      "dic": 1221,
      "ative": 1222,
      "works": 1223,
      "worried": 1224,
      "team": 1225,
      "older": 1226,
      "fully": 1227,
      "stree": 1228,
      "move": 1229,
      "fall": 1230,
      "girlfriend": 1231,
      "strong": 1232,
      "kids": 1233,
      "certain": 1234,
      "cri": 1235,
      "cur": 1236,
      "health": 1237,
      "crazy": 1238,
      "ition": 1239,
      "beer": 1240,
      "worth": 1241,
      "grand": 1242,
      "strange": 1243,
      "mil": 1244,
      "whole": 1245,
      "ameri": 1246,
      "sense": 1247,
      "sign": 1248,
      "reco": 1249,
      "aken": 1250,
      "point": 1251,
      "hospital": 1252,
      "fight": 1253,
      "paper": 1254,
      "quickly": 1255,
      "bag": 1256,
      "leg": 1257,
      "tea": 1258,
      "ush": 1259,
      "ular": 1260,
      "stayed": 1261,
      "paid": 1262,
      "ma": 1263,
      "sometimes": 1264,
      "fair": 1265,
      "guys": 1266,
      "fied": 1267,
      "discus": 1268,
      "funny": 1269,
      "eng": 1270,
      "rich": 1271,
      "emp": 1272,
      "seat": 1273,
      "guy": 1274,
      "wearing": 1275,
      "apo": 1276,
      "gard": 1277,
      "hit": 1278,
      "fort": 1279,
      "spon": 1280,
      "spent": 1281,
      "ff": 1282,
      "land": 1283,
      "wall": 1284,
      "scared": 1285,
      "expensive": 1286,
      "appreciate": 1287,
      "daughter": 1288,
      "cal": 1289,
      "ze": 1290,
      "doll": 1291,
      "wel": 1292,
      "medic": 1293,
      "monday": 1294,
      "tel": 1295,
      "disappo": 1296,
      "check": 1297,
      "grow": 1298,
      "cli": 1299,
      "asleep": 1300,
      "ween": 1301,
      "building": 1302,
      "av": 1303,
      "smar": 1304,
      "terri": 1305,
      "japanese": 1306,
      "hotel": 1307,
      "smoking": 1308,
      "blo": 1309,
      "fail": 1310,
      "flower": 1311,
      "ken": 1312,
      "nor": 1313,
      "woman": 1314,
      "main": 1315,
      "necess": 1316,
      "solu": 1317,
      "colle": 1318,
      "lying": 1319,
      "death": 1320,
      "ased": 1321,
      "store": 1322,
      "loves": 1323,
      "suggest": 1324,
      "travel": 1325,
      "apolog": 1326,
      "ming": 1327,
      "sim": 1328,
      "quie": 1329,
      "eaten": 1330,
      "milk": 1331,
      "five": 1332,
      "ris": 1333,
      "inted": 1334,
      "ider": 1335,
      "experi": 1336,
      "nis": 1337,
      "second": 1338,
      "tennis": 1339,
      "birth": 1340,
      "card": 1341,
      "half": 1342,
      "tention": 1343,
      "cake": 1344,
      "gun": 1345,
      "ness": 1346,
      "watching": 1347,
      "stopped": 1348,
      "street": 1349,
      "rid": 1350,
      "respon": 1351,
      "wash": 1352,
      "ries": 1353,
      "comes": 1354,
      "clock": 1355,
      "advised": 1356,
      "touch": 1357,
      "irt": 1358,
      "began": 1359,
      "az": 1360,
      "killed": 1361,
      "quiet": 1362,
      "em": 1363,
      "ned": 1364,
      "ual": 1365,
      "teach": 1366,
      "patient": 1367,
      "sus": 1368,
      "along": 1369,
      "known": 1370,
      "conv": 1371,
      "minute": 1372,
      "sme": 1373,
      "sell": 1374,
      "between": 1375,
      "missed": 1376,
      "trip": 1377,
      "thirty": 1378,
      "aur": 1379,
      "vac": 1380,
      "oc": 1381,
      "hes": 1382,
      "restaur": 1383,
      "problems": 1384,
      "fron": 1385,
      "dangerous": 1386,
      "restaurant": 1387,
      "lves": 1388,
      "ded": 1389,
      "report": 1390,
      "asses": 1391,
      "allowed": 1392,
      "inform": 1393,
      "became": 1394,
      "boss": 1395,
      "trans": 1396,
      "shut": 1397,
      "pressed": 1398,
      "ue": 1399,
      "suit": 1400,
      "speaking": 1401,
      "opin": 1402,
      "band": 1403,
      "mi": 1404,
      "liked": 1405,
      "drunk": 1406,
      "invited": 1407,
      "six": 1408,
      "line": 1409,
      "sy": 1410,
      "language": 1411,
      "opinion": 1412,
      "talked": 1413,
      "happens": 1414,
      "coat": 1415,
      "ages": 1416,
      "front": 1417,
      "necessary": 1418,
      "vel": 1419,
      "rote": 1420,
      "ations": 1421,
      "words": 1422,
      "mistakes": 1423,
      "studying": 1424,
      "correct": 1425,
      "30": 1426,
      "rather": 1427,
      "prefer": 1428,
      "closed": 1429,
      "finally": 1430,
      "smell": 1431,
      "borrow": 1432,
      "wrote": 1433,
      "mes": 1434,
      "worked": 1435,
      "neigh": 1436,
      "fre": 1437,
      "dogs": 1438,
      "prison": 1439,
      "garden": 1440,
      "neighbor": 1441,
      "sub": 1442,
      "whether": 1443,
      "sport": 1444,
      "broken": 1445,
      "deser": 1446,
      "vous": 1447,
      "lea": 1448,
      "fool": 1449,
      "telling": 1450,
      "takes": 1451,
      "information": 1452,
      "weight": 1453,
      "aged": 1454,
      "helped": 1455,
      "happening": 1456,
      "shot": 1457,
      "smoke": 1458,
      "success": 1459,
      "selves": 1460,
      "ceed": 1461,
      "completely": 1462,
      "aper": 1463,
      "bot": 1464,
      "foot": 1465,
      "rence": 1466,
      "lived": 1467,
      "weekend": 1468,
      "nervous": 1469,
      "cu": 1470,
      "inc": 1471,
      "black": 1472,
      "running": 1473,
      "consider": 1474,
      "leaving": 1475,
      "pho": 1476,
      "goes": 1477,
      "writing": 1478,
      "tory": 1479,
      "earth": 1480,
      "bird": 1481,
      "bank": 1482,
      "hid": 1483,
      "col": 1484,
      "others": 1485,
      "brought": 1486,
      "dist": 1487,
      "fl": 1488,
      "gn": 1489,
      "least": 1490,
      "joke": 1491,
      "actually": 1492,
      "tax": 1493,
      "bar": 1494,
      "sle": 1495,
      "rece": 1496,
      "ized": 1497,
      "stood": 1498,
      "evening": 1499,
      "slow": 1500,
      "accept": 1501,
      "cial": 1502,
      "umb": 1503,
      "swimming": 1504,
      "sold": 1505,
      "onest": 1506,
      "sever": 1507,
      "ared": 1508,
      "prepare": 1509,
      "handle": 1510,
      "birthday": 1511,
      "mid": 1512,
      "imag": 1513,
      "expected": 1514,
      "sad": 1515,
      "speaks": 1516,
      "lawy": 1517,
      "discuss": 1518,
      "chair": 1519,
      "sil": 1520,
      "beach": 1521,
      "fine": 1522,
      "wed": 1523,
      "gets": 1524,
      "floor": 1525,
      "cy": 1526,
      "owe": 1527,
      "wake": 1528,
      "ins": 1529,
      "stair": 1530,
      "adi": 1531,
      "ical": 1532,
      "disappointed": 1533,
      "flowers": 1534,
      "dou": 1535,
      "ei": 1536,
      "fac": 1537,
      "white": 1538,
      "whatever": 1539,
      "ni": 1540,
      "teen": 1541,
      "likely": 1542,
      "pres": 1543,
      "glass": 1544,
      "fut": 1545,
      "send": 1546,
      "noise": 1547,
      "offer": 1548,
      "rules": 1549,
      "blame": 1550,
      "gif": 1551,
      "honest": 1552,
      "val": 1553,
      "enti": 1554,
      "liar": 1555,
      "forward": 1556,
      "ants": 1557,
      "shirt": 1558,
      "shopping": 1559,
      "diction": 1560,
      "future": 1561,
      "pian": 1562,
      "ined": 1563,
      "loved": 1564,
      "contin": 1565,
      "excuse": 1566,
      "doub": 1567,
      "scre": 1568,
      "bother": 1569,
      "satis": 1570,
      "cou": 1571,
      "vol": 1572,
      "lied": 1573,
      "somewhere": 1574,
      "walked": 1575,
      "several": 1576,
      "opp": 1577,
      "warm": 1578,
      "stru": 1579,
      "cannot": 1580,
      "une": 1581,
      "resu": 1582,
      "pop": 1583,
      "messa": 1584,
      "stairs": 1585,
      "either": 1586,
      "bill": 1587,
      "regre": 1588,
      "address": 1589,
      "upset": 1590,
      "price": 1591,
      "sounds": 1592,
      "figured": 1593,
      "bath": 1594,
      "dance": 1595,
      "whose": 1596,
      "ountain": 1597,
      "star": 1598,
      "keys": 1599,
      "appro": 1600,
      "sleeping": 1601,
      "risk": 1602,
      "sou": 1603,
      "rell": 1604,
      "medi": 1605,
      "waste": 1606,
      "glasses": 1607,
      "dollars": 1608,
      "dictionary": 1609,
      "gra": 1610,
      "anim": 1611,
      "rope": 1612,
      "ility": 1613,
      "spect": 1614,
      "desk": 1615,
      "kets": 1616,
      "thinks": 1617,
      "uring": 1618,
      "dered": 1619,
      "hasn": 1620,
      "succeed": 1621,
      "fas": 1622,
      "pun": 1623,
      "apart": 1624,
      "famous": 1625,
      "umbrell": 1626,
      "lawyer": 1627,
      "libr": 1628,
      "drinking": 1629,
      "written": 1630,
      "dra": 1631,
      "attention": 1632,
      "ator": 1633,
      "blu": 1634,
      "cross": 1635,
      "seeing": 1636,
      "color": 1637,
      "pur": 1638,
      "taken": 1639,
      "reli": 1640,
      "ates": 1641,
      "tice": 1642,
      "recogn": 1643,
      "piano": 1644,
      "ug": 1645,
      "means": 1646,
      "spoke": 1647,
      "piece": 1648,
      "et": 1649,
      "fat": 1650,
      "reali": 1651,
      "mountain": 1652,
      "remain": 1653,
      "poor": 1654,
      "agre": 1655,
      "photo": 1656,
      "sw": 1657,
      "solve": 1658,
      "tem": 1659,
      "asking": 1660,
      "pair": 1661,
      "promised": 1662,
      "kiss": 1663,
      "umbrella": 1664,
      "during": 1665,
      "warn": 1666,
      "vered": 1667,
      "arr": 1668,
      "dden": 1669,
      "ged": 1670,
      "hus": 1671,
      "ier": 1672,
      "inside": 1673,
      "ond": 1674,
      "tie": 1675,
      "sudden": 1676,
      "ived": 1677,
      "opened": 1678,
      "difference": 1679,
      "crying": 1680,
      "library": 1681,
      "egg": 1682,
      "ib": 1683,
      "inju": 1684,
      "vent": 1685,
      "novel": 1686,
      "immedi": 1687,
      "save": 1688,
      "prote": 1689,
      "regret": 1690,
      "bur": 1691,
      "vious": 1692,
      "ene": 1693,
      "lock": 1694,
      "traf": 1695,
      "choose": 1696,
      "welcome": 1697,
      "tail": 1698,
      "argu": 1699,
      "belong": 1700,
      "tee": 1701,
      "contro": 1702,
      "husband": 1703,
      "traffic": 1704,
      "ext": 1705,
      "join": 1706,
      "painting": 1707,
      "arrive": 1708,
      "medicine": 1709,
      "admit": 1710,
      "listening": 1711,
      "message": 1712,
      "lies": 1713,
      "fault": 1714,
      "wood": 1715,
      "learned": 1716,
      "fill": 1717,
      "pend": 1718,
      "enter": 1719,
      "cell": 1720,
      "guit": 1721,
      "ticket": 1722,
      "vacation": 1723,
      "sn": 1724,
      "dest": 1725,
      "stor": 1726,
      "spee": 1727,
      "girls": 1728,
      "squ": 1729,
      "tered": 1730,
      "newsp": 1731,
      "given": 1732,
      "women": 1733,
      "smart": 1734,
      "newspaper": 1735,
      "ahead": 1736,
      "plans": 1737,
      "empty": 1738,
      "cha": 1739,
      "hol": 1740,
      "concer": 1741,
      "vision": 1742,
      "horse": 1743,
      "alive": 1744,
      "uni": 1745,
      "apple": 1746,
      "slept": 1747,
      "speech": 1748,
      "four": 1749,
      "gent": 1750,
      "wind": 1751,
      "top": 1752,
      "waited": 1753,
      "earli": 1754,
      "jump": 1755,
      "ling": 1756,
      "zed": 1757,
      "hop": 1758,
      "uncle": 1759,
      "amp": 1760,
      "willing": 1761,
      "concert": 1762,
      "guitar": 1763,
      "flu": 1764,
      "heav": 1765,
      "iday": 1766,
      "worse": 1767,
      "prove": 1768,
      "tu": 1769,
      "throw": 1770,
      "meat": 1771,
      "idge": 1772,
      "uty": 1773,
      "fired": 1774,
      "planning": 1775,
      "driver": 1776,
      "american": 1777,
      "immediately": 1778,
      "date": 1779,
      "ied": 1780,
      "across": 1781,
      "depend": 1782,
      "cious": 1783,
      "driving": 1784,
      "telephone": 1785,
      "satisfied": 1786,
      "lake": 1787,
      "post": 1788,
      "hardly": 1789,
      "camera": 1790,
      "pack": 1791,
      "swe": 1792,
      "thre": 1793,
      "iling": 1794,
      "apologize": 1795,
      "crow": 1796,
      "ile": 1797,
      "moved": 1798,
      "played": 1799,
      "prepared": 1800,
      "injured": 1801,
      "emb": 1802,
      "gar": 1803,
      "radi": 1804,
      "cop": 1805,
      "stuff": 1806,
      "mail": 1807,
      "none": 1808,
      "rel": 1809,
      "respect": 1810,
      "ford": 1811,
      "power": 1812,
      "ilt": 1813,
      "carefully": 1814,
      "grad": 1815,
      "showed": 1816,
      "serv": 1817,
      "suppose": 1818,
      "ky": 1819,
      "past": 1820,
      "pull": 1821,
      "stick": 1822,
      "beginning": 1823,
      "blue": 1824,
      "storm": 1825,
      "earlier": 1826,
      "gi": 1827,
      "len": 1828,
      "ination": 1829,
      "exp": 1830,
      "comfor": 1831,
      "ments": 1832,
      "pictures": 1833,
      "climb": 1834,
      "deserve": 1835,
      "radio": 1836,
      "kit": 1837,
      "native": 1838,
      "ater": 1839,
      "beat": 1840,
      "staying": 1841,
      "pub": 1842,
      "gift": 1843,
      "couple": 1844,
      "mand": 1845,
      "mach": 1846,
      "recent": 1847,
      "ons": 1848,
      "posit": 1849,
      "mission": 1850,
      "ev": 1851,
      "lend": 1852,
      "veget": 1853,
      "weir": 1854,
      "impossible": 1855,
      "seemed": 1856,
      "ager": 1857,
      "raining": 1858,
      "dressed": 1859,
      "experience": 1860,
      "eye": 1861,
      "pet": 1862,
      "special": 1863,
      "agreed": 1864,
      "hang": 1865,
      "mag": 1866,
      "afford": 1867,
      "ground": 1868,
      "cats": 1869,
      "ski": 1870,
      "dle": 1871,
      "memor": 1872,
      "ics": 1873,
      "intro": 1874,
      "boyfriend": 1875,
      "invol": 1876,
      "gener": 1877,
      "avo": 1878,
      "dan": 1879,
      "fing": 1880,
      "rely": 1881,
      "ature": 1882,
      "arrest": 1883,
      "bey": 1884,
      "boys": 1885,
      "trac": 1886,
      "wonderful": 1887,
      "passed": 1888,
      "college": 1889,
      "clu": 1890,
      "ms": 1891,
      "ride": 1892,
      "stra": 1893,
      "market": 1894,
      "cted": 1895,
      "sitting": 1896,
      "movies": 1897,
      "television": 1898,
      "blood": 1899,
      "bottle": 1900,
      "doubt": 1901,
      "comfortable": 1902,
      "decide": 1903,
      "control": 1904,
      "mom": 1905,
      "lax": 1906,
      "fortun": 1907,
      "terrible": 1908,
      "ctive": 1909,
      "idence": 1910,
      "pleas": 1911,
      "deep": 1912,
      "sunday": 1913,
      "norm": 1914,
      "bra": 1915,
      "relax": 1916,
      "step": 1917,
      "erg": 1918,
      "boat": 1919,
      "ions": 1920,
      "produ": 1921,
      "carry": 1922,
      "walking": 1923,
      "kissed": 1924,
      "dred": 1925,
      "twi": 1926,
      "ened": 1927,
      "common": 1928,
      "harder": 1929,
      "hundred": 1930,
      "surprise": 1931,
      "laughing": 1932,
      "bike": 1933,
      "animals": 1934,
      "base": 1935,
      "mur": 1936,
      "reg": 1937,
      "abroad": 1938,
      "cks": 1939,
      "calm": 1940,
      "weird": 1941,
      "lay": 1942,
      "sear": 1943,
      "also": 1944,
      "shop": 1945,
      "lights": 1946,
      "sugar": 1947,
      "public": 1948,
      "machine": 1949,
      "19": 1950,
      "ghed": 1951,
      "ror": 1952,
      "canad": 1953,
      "foreign": 1954,
      "airport": 1955,
      "cil": 1956,
      "fit": 1957,
      "ired": 1958,
      "return": 1959,
      "prac": 1960,
      "winter": 1961,
      "sooner": 1962,
      "jud": 1963,
      "kni": 1964,
      "na": 1965,
      "tain": 1966,
      "stri": 1967,
      "covered": 1968,
      "board": 1969,
      "poc": 1970,
      "kyo": 1971,
      "involved": 1972,
      "knife": 1973,
      "vie": 1974,
      "soc": 1975,
      "built": 1976,
      "singing": 1977,
      "obvious": 1978,
      "burn": 1979,
      "sible": 1980,
      "absolu": 1981,
      "using": 1982,
      "anywhere": 1983,
      "gotten": 1984,
      "ches": 1985,
      "easily": 1986,
      "heavy": 1987,
      "cute": 1988,
      "tal": 1989,
      "meant": 1990,
      "locked": 1991,
      "cep": 1992,
      "ushed": 1993,
      "acting": 1994,
      "appear": 1995,
      "chen": 1996,
      "younger": 1997,
      "sky": 1998,
      "followed": 1999,
      "figure": 2000,
      "eggs": 2001,
      "embarr": 2002,
      "kitchen": 2003,
      "bas": 2004,
      "inced": 2005,
      "gover": 2006,
      "stolen": 2007,
      "enjoyed": 2008,
      "attack": 2009,
      "convinced": 2010,
      "introdu": 2011,
      "twice": 2012,
      "hood": 2013,
      "ache": 2014,
      "aked": 2015,
      "tions": 2016,
      "stead": 2017,
      "fishing": 2018,
      "giving": 2019,
      "pas": 2020,
      "weeks": 2021,
      "bri": 2022,
      "hide": 2023,
      "oper": 2024,
      "asha": 2025,
      "ities": 2026,
      "detail": 2027,
      "drank": 2028,
      "shower": 2029,
      "condition": 2030,
      "attend": 2031,
      "embarrass": 2032,
      "ashamed": 2033,
      "lad": 2034,
      "rup": 2035,
      "charge": 2036,
      "deli": 2037,
      "ists": 2038,
      "treat": 2039,
      "vest": 2040,
      "held": 2041,
      "propo": 2042,
      "iled": 2043,
      "bread": 2044,
      "gan": 2045,
      "sof": 2046,
      "taught": 2047,
      "ress": 2048,
      "remind": 2049,
      "lear": 2050,
      "char": 2051,
      "cool": 2052,
      "feed": 2053,
      "enty": 2054,
      "plenty": 2055,
      "ideas": 2056,
      "leaves": 2057,
      "trees": 2058,
      "drop": 2059,
      "taxi": 2060,
      "protect": 2061,
      "fru": 2062,
      "lone": 2063,
      "sight": 2064,
      "sci": 2065,
      "lead": 2066,
      "super": 2067,
      "apples": 2068,
      "simple": 2069,
      "inno": 2070,
      "seven": 2071,
      "uts": 2072,
      "button": 2073,
      "refused": 2074,
      "faster": 2075,
      "avoid": 2076,
      "view": 2077,
      "dad": 2078,
      "loud": 2079,
      "arely": 2080,
      "ached": 2081,
      "impressed": 2082,
      "ters": 2083,
      "igno": 2084,
      "calling": 2085,
      "aware": 2086,
      "suddenly": 2087,
      "extreme": 2088,
      "har": 2089,
      "sand": 2090,
      "usual": 2091,
      "fear": 2092,
      "kidding": 2093,
      "laughed": 2094,
      "popular": 2095,
      "recently": 2096,
      "canadian": 2097,
      "bat": 2098,
      "sol": 2099,
      "marry": 2100,
      "blind": 2101,
      "viol": 2102,
      "taller": 2103,
      "grandfather": 2104,
      "cast": 2105,
      "organ": 2106,
      "pol": 2107,
      "possib": 2108,
      "cooking": 2109,
      "seriously": 2110,
      "gas": 2111,
      "swee": 2112,
      "toes": 2113,
      "ances": 2114,
      "ense": 2115,
      "ade": 2116,
      "aded": 2117,
      "wered": 2118,
      "hadn": 2119,
      "understood": 2120,
      "stuck": 2121,
      "pencil": 2122,
      "america": 2123,
      "failed": 2124,
      "learning": 2125,
      "mou": 2126,
      "vill": 2127,
      "yed": 2128,
      "tokyo": 2129,
      "saved": 2130,
      "woke": 2131,
      "prof": 2132,
      "ief": 2133,
      "share": 2134,
      "months": 2135,
      "wedding": 2136,
      "lonely": 2137,
      "eu": 2138,
      "sli": 2139,
      "wise": 2140,
      "thor": 2141,
      "vers": 2142,
      "ties": 2143,
      "suf": 2144,
      "ables": 2145,
      "missing": 2146,
      "buying": 2147,
      "holiday": 2148,
      "cing": 2149,
      "duty": 2150,
      "kno": 2151,
      "ines": 2152,
      "lled": 2153,
      "seum": 2154,
      "alous": 2155,
      "tight": 2156,
      "rious": 2157,
      "worst": 2158,
      "opport": 2159,
      "apartment": 2160,
      "recognize": 2161,
      "enemy": 2162,
      "cas": 2163,
      "vide": 2164,
      "mess": 2165,
      "chur": 2166,
      "commit": 2167,
      "jealous": 2168,
      "sched": 2169,
      "soccer": 2170,
      "absolutely": 2171,
      "mouth": 2172,
      "non": 2173,
      "tast": 2174,
      "entr": 2175,
      "explan": 2176,
      "helping": 2177,
      "museum": 2178,
      "watched": 2179,
      "bridge": 2180,
      "warned": 2181,
      "normal": 2182,
      "opportun": 2183,
      "dry": 2184,
      "hn": 2185,
      "lon": 2186,
      "lts": 2187,
      "demand": 2188,
      "project": 2189,
      "john": 2190,
      "appe": 2191,
      "painted": 2192,
      "voice": 2193,
      "solution": 2194,
      "univer": 2195,
      "arrested": 2196,
      "eight": 2197,
      "fact": 2198,
      "ply": 2199,
      "dom": 2200,
      "pleased": 2201,
      "gram": 2202,
      "surv": 2203,
      "extremely": 2204,
      "church": 2205,
      "obey": 2206,
      "though": 2207,
      "gold": 2208,
      "starting": 2209,
      "sleepy": 2210,
      "sentence": 2211,
      "prices": 2212,
      "feelings": 2213,
      "suspect": 2214,
      "govern": 2215,
      "rat": 2216,
      "sea": 2217,
      "god": 2218,
      "deb": 2219,
      "polit": 2220,
      "stole": 2221,
      "sity": 2222,
      "ticed": 2223,
      "support": 2224,
      "gain": 2225,
      "ued": 2226,
      "notice": 2227,
      "peace": 2228,
      "fami": 2229,
      "personal": 2230,
      "awake": 2231,
      "translate": 2232,
      "fruit": 2233,
      "mill": 2234,
      "piz": 2235,
      "moon": 2236,
      "friendly": 2237,
      "plays": 2238,
      "breath": 2239,
      "expecting": 2240,
      "caused": 2241,
      "neither": 2242,
      "slowly": 2243,
      "teeth": 2244,
      "explo": 2245,
      "pizz": 2246,
      "forgive": 2247,
      "bored": 2248,
      "herself": 2249,
      "lots": 2250,
      "feels": 2251,
      "studied": 2252,
      "green": 2253,
      "doors": 2254,
      "responsible": 2255,
      "fresh": 2256,
      "received": 2257,
      "fly": 2258,
      "sort": 2259,
      "absent": 2260,
      "oken": 2261,
      "ilty": 2262,
      "guilty": 2263,
      "choco": 2264,
      "boring": 2265,
      "subject": 2266,
      "polite": 2267,
      "government": 2268,
      "fu": 2269,
      "till": 2270,
      "stone": 2271,
      "type": 2272,
      "feet": 2273,
      "priv": 2274,
      "realize": 2275,
      "dir": 2276,
      "dam": 2277,
      "sl": 2278,
      "thous": 2279,
      "anno": 2280,
      "member": 2281,
      "web": 2282,
      "host": 2283,
      "amaz": 2284,
      "spring": 2285,
      "guard": 2286,
      "cars": 2287,
      "octo": 2288,
      "silent": 2289,
      "explanation": 2290,
      "thousand": 2291,
      "fed": 2292,
      "fif": 2293,
      "round": 2294,
      "invest": 2295,
      "sel": 2296,
      "escap": 2297,
      "add": 2298,
      "history": 2299,
      "accused": 2300,
      "smile": 2301,
      "vote": 2302,
      "cape": 2303,
      "course": 2304,
      "wallet": 2305,
      "continue": 2306,
      "baseball": 2307,
      "search": 2308,
      "europe": 2309,
      "october": 2310,
      "20": 2311,
      "mir": 2312,
      "instead": 2313,
      "meal": 2314,
      "assu": 2315,
      "ordered": 2316,
      "noticed": 2317,
      "acket": 2318,
      "pose": 2319,
      "divor": 2320,
      "assist": 2321,
      "account": 2322,
      "cards": 2323,
      "dirty": 2324,
      "10": 2325,
      "ia": 2326,
      "ire": 2327,
      "nic": 2328,
      "paint": 2329,
      "forgotten": 2330,
      "hates": 2331,
      "neighbors": 2332,
      "vegetables": 2333,
      "ule": 2334,
      "haps": 2335,
      "bear": 2336,
      "escape": 2337,
      "conside": 2338,
      "perhaps": 2339,
      "truck": 2340,
      "salt": 2341,
      "languages": 2342,
      "draw": 2343,
      "considered": 2344,
      "ban": 2345,
      "ks": 2346,
      "nine": 2347,
      "ised": 2348,
      "itch": 2349,
      "idi": 2350,
      "abo": 2351,
      "exha": 2352,
      "fright": 2353,
      "rumor": 2354,
      "president": 2355,
      "volun": 2356,
      "memory": 2357,
      "innocent": 2358,
      "village": 2359,
      "schedule": 2360,
      "pizza": 2361,
      "push": 2362,
      "ones": 2363,
      "temp": 2364,
      "rude": 2365,
      "ticular": 2366,
      "particular": 2367,
      "intend": 2368,
      "intment": 2369,
      "nearly": 2370,
      "birds": 2371,
      "arti": 2372,
      "cance": 2373,
      "persu": 2374,
      "standing": 2375,
      "grew": 2376,
      "rule": 2377,
      "tickets": 2378,
      "washing": 2379,
      "soup": 2380,
      "ped": 2381,
      "issu": 2382,
      "rob": 2383,
      "forced": 2384,
      "impress": 2385,
      "exer": 2386,
      "single": 2387,
      "dropped": 2388,
      "elect": 2389,
      "crime": 2390,
      "suitcase": 2391,
      "temper": 2392,
      "talent": 2393,
      "proposal": 2394,
      "ease": 2395,
      "ieve": 2396,
      "tally": 2397,
      "bell": 2398,
      "usted": 2399,
      "cream": 2400,
      "wondering": 2401,
      "hiding": 2402,
      "chocolate": 2403,
      "cise": 2404,
      "nose": 2405,
      "mood": 2406,
      "raise": 2407,
      "human": 2408,
      "picked": 2409,
      "fortunately": 2410,
      "opportunity": 2411,
      "sion": 2412,
      "tas": 2413,
      "wound": 2414,
      "totally": 2415,
      "iron": 2416,
      "prevent": 2417,
      "understanding": 2418,
      "windows": 2419,
      "engine": 2420,
      "hoping": 2421,
      "threat": 2422,
      "taste": 2423,
      "fur": 2424,
      "reach": 2425,
      "chick": 2426,
      "spoken": 2427,
      "answered": 2428,
      "mention": 2429,
      "following": 2430,
      "position": 2431,
      "club": 2432,
      "straight": 2433,
      "nur": 2434,
      "nuts": 2435,
      "pan": 2436,
      "tough": 2437,
      "attrac": 2438,
      "heat": 2439,
      "habit": 2440,
      "tray": 2441,
      "drinks": 2442,
      "listened": 2443,
      "skin": 2444,
      "trusted": 2445,
      "purpose": 2446,
      "concerned": 2447,
      "sweet": 2448,
      "bright": 2449,
      "flight": 2450,
      "island": 2451,
      "astic": 2452,
      "lling": 2453,
      "healthy": 2454,
      "results": 2455,
      "nat": 2456,
      "returned": 2457,
      "ves": 2458,
      "losing": 2459,
      "united": 2460,
      "plant": 2461,
      "pool": 2462,
      "apped": 2463,
      "believed": 2464,
      "handed": 2465,
      "visited": 2466,
      "mistaken": 2467,
      "brothers": 2468,
      "spending": 2469,
      "private": 2470,
      "chicken": 2471,
      "cher": 2472,
      "hy": 2473,
      "harm": 2474,
      "iers": 2475,
      "ience": 2476,
      "map": 2477,
      "roof": 2478,
      "tears": 2479,
      "ural": 2480,
      "ilar": 2481,
      "eats": 2482,
      "license": 2483,
      "confused": 2484,
      "convince": 2485,
      "passport": 2486,
      "tastes": 2487,
      "seldom": 2488,
      "cab": 2489,
      "cried": 2490,
      "gree": 2491,
      "vic": 2492,
      "ork": 2493,
      "entered": 2494,
      "ific": 2495,
      "poem": 2496,
      "commen": 2497,
      "butter": 2498,
      "keeps": 2499,
      "singer": 2500,
      "pretend": 2501,
      "appointment": 2502,
      "excited": 2503,
      "certainly": 2504,
      "smarter": 2505,
      "soldiers": 2506,
      "magaz": 2507,
      "fle": 2508,
      "scar": 2509,
      "repe": 2510,
      "wet": 2511,
      "upstairs": 2512,
      "proper": 2513,
      "contr": 2514,
      "permission": 2515,
      "cts": 2516,
      "manager": 2517,
      "bigger": 2518,
      "huge": 2519,
      "ctions": 2520,
      "football": 2521,
      "familiar": 2522,
      "idiot": 2523,
      "article": 2524,
      "cla": 2525,
      "cash": 2526,
      "requ": 2527,
      "recommen": 2528,
      "note": 2529,
      "weap": 2530,
      "admi": 2531,
      "lazy": 2532,
      "complic": 2533,
      "descri": 2534,
      "difficul": 2535,
      "crit": 2536,
      "complaining": 2537,
      "middle": 2538,
      "crowd": 2539,
      "escaped": 2540,
      "electri": 2541,
      "equ": 2542,
      "jam": 2543,
      "moving": 2544,
      "shar": 2545,
      "deter": 2546,
      "ourselves": 2547,
      "dire": 2548,
      "gress": 2549,
      "rains": 2550,
      "changes": 2551,
      "diet": 2552,
      "explained": 2553,
      "drown": 2554,
      "courage": 2555,
      "grandmother": 2556,
      "appeared": 2557,
      "eg": 2558,
      "ging": 2559,
      "mun": 2560,
      "oo": 2561,
      "incre": 2562,
      "hey": 2563,
      "ery": 2564,
      "weak": 2565,
      "bow": 2566,
      "shy": 2567,
      "quake": 2568,
      "manage": 2569,
      "forever": 2570,
      "drug": 2571,
      "brush": 2572,
      "cheap": 2573,
      "ners": 2574,
      "names": 2575,
      "brea": 2576,
      "served": 2577,
      "headache": 2578,
      "due": 2579,
      "meaning": 2580,
      "interrup": 2581,
      "curious": 2582,
      "million": 2583,
      "furn": 2584,
      "tour": 2585,
      "rele": 2586,
      "istic": 2587,
      "ham": 2588,
      "formed": 2589,
      "event": 2590,
      "apply": 2591,
      "shocked": 2592,
      "grab": 2593,
      "hurts": 2594,
      "cookies": 2595,
      "presents": 2596,
      "fighting": 2597,
      "legs": 2598,
      "emplo": 2599,
      "earthquake": 2600,
      "filled": 2601,
      "bby": 2602,
      "nation": 2603,
      "tur": 2604,
      "ying": 2605,
      "yen": 2606,
      "oned": 2607,
      "lebr": 2608,
      "celebr": 2609,
      "ury": 2610,
      "urgent": 2611,
      "calls": 2612,
      "dishes": 2613,
      "chess": 2614,
      "rained": 2615,
      "horri": 2616,
      "occur": 2617,
      "punished": 2618,
      "ergy": 2619,
      "murder": 2620,
      "bye": 2621,
      "cous": 2622,
      "flat": 2623,
      "hill": 2624,
      "jacket": 2625,
      "havi": 2626,
      "behavi": 2627,
      "rice": 2628,
      "yourselves": 2629,
      "tra": 2630,
      "depressed": 2631,
      "talks": 2632,
      "match": 2633,
      "paying": 2634,
      "contact": 2635,
      "advant": 2636,
      "dreams": 2637,
      "000": 2638,
      "result": 2639,
      "sweater": 2640,
      "finger": 2641,
      "brave": 2642,
      "exhausted": 2643,
      "cation": 2644,
      "ds": 2645,
      "oil": 2646,
      "pred": 2647,
      "theor": 2648,
      "energy": 2649,
      "states": 2650,
      "golf": 2651,
      "area": 2652,
      "unhappy": 2653,
      "oking": 2654,
      "depart": 2655,
      "goodbye": 2656,
      "player": 2657,
      "irsty": 2658,
      "hired": 2659,
      "letters": 2660,
      "games": 2661,
      "songs": 2662,
      "avail": 2663,
      "suspic": 2664,
      "scream": 2665,
      "embarrassed": 2666,
      "lady": 2667,
      "university": 2668,
      "behavior": 2669,
      "cro": 2670,
      "ls": 2671,
      "thief": 2672,
      "andon": 2673,
      "llo": 2674,
      "antic": 2675,
      "tire": 2676,
      "abandon": 2677,
      "plac": 2678,
      "author": 2679,
      "guest": 2680,
      "tooth": 2681,
      "accus": 2682,
      "hearing": 2683,
      "policeman": 2684,
      "custo": 2685,
      "refuse": 2686,
      "clearly": 2687,
      "sports": 2688,
      "distur": 2689,
      "continued": 2690,
      "gradu": 2691,
      "pleasure": 2692,
      "details": 2693,
      "solved": 2694,
      "complicated": 2695,
      "cir": 2696,
      "betray": 2697,
      "fered": 2698,
      "conne": 2699,
      "audi": 2700,
      "prin": 2701,
      "bedroom": 2702,
      "docu": 2703,
      "wards": 2704,
      "countries": 2705,
      "example": 2706,
      "growing": 2707,
      "traveling": 2708,
      "realized": 2709,
      "skiing": 2710,
      "burned": 2711,
      "ba": 2712,
      "ben": 2713,
      "eld": 2714,
      "econ": 2715,
      "zen": 2716,
      "zoo": 2717,
      "velo": 2718,
      "hero": 2719,
      "someday": 2720,
      "among": 2721,
      "excell": 2722,
      "workers": 2723,
      "easier": 2724,
      "stem": 2725,
      "incred": 2726,
      "remained": 2727,
      "destro": 2728,
      "judge": 2729,
      "possibility": 2730,
      "amazing": 2731,
      "cig": 2732,
      "ial": 2733,
      "pi": 2734,
      "tou": 2735,
      "reached": 2736,
      "hesit": 2737,
      "washed": 2738,
      "ambit": 2739,
      "everywhere": 2740,
      "except": 2741,
      "parked": 2742,
      "gged": 2743,
      "third": 2744,
      "resign": 2745,
      "complete": 2746,
      "maj": 2747,
      "email": 2748,
      "teaching": 2749,
      "distance": 2750,
      "garage": 2751,
      "dancing": 2752,
      "further": 2753,
      "cred": 2754,
      "cru": 2755,
      "couch": 2756,
      "centr": 2757,
      "da": 2758,
      "emer": 2759,
      "jail": 2760,
      "joking": 2761,
      "rang": 2762,
      "zz": 2763,
      "instru": 2764,
      "recor": 2765,
      "accep": 2766,
      "ulous": 2767,
      "grou": 2768,
      "wears": 2769,
      "steal": 2770,
      "sib": 2771,
      "fixed": 2772,
      "perfectly": 2773,
      "fairly": 2774,
      "responsib": 2775,
      "practice": 2776,
      "delicious": 2777,
      "video": 2778,
      "theory": 2779,
      "available": 2780,
      "excellent": 2781,
      "major": 2782,
      "sco": 2783,
      "ides": 2784,
      "cancer": 2785,
      "anyway": 2786,
      "tery": 2787,
      "ently": 2788,
      "arms": 2789,
      "satur": 2790,
      "imagine": 2791,
      "basket": 2792,
      "sandwi": 2793,
      "above": 2794,
      "exercise": 2795,
      "attractive": 2796,
      "bite": 2797,
      "ges": 2798,
      "size": 2799,
      "intell": 2800,
      "iture": 2801,
      "ences": 2802,
      "season": 2803,
      "lower": 2804,
      "cover": 2805,
      "motion": 2806,
      "whenever": 2807,
      "spare": 2808,
      "speed": 2809,
      "achieve": 2810,
      "clever": 2811,
      "path": 2812,
      "mers": 2813,
      "teachers": 2814,
      "smiling": 2815,
      "writer": 2816,
      "confident": 2817,
      "failure": 2818,
      "similar": 2819,
      "belongs": 2820,
      "ignore": 2821,
      "investig": 2822,
      "natural": 2823,
      "furniture": 2824,
      "ado": 2825,
      "gro": 2826,
      "site": 2827,
      "text": 2828,
      "unt": 2829,
      "acted": 2830,
      "delight": 2831,
      "careless": 2832,
      "cheer": 2833,
      "invit": 2834,
      "gency": 2835,
      "pocket": 2836,
      "introduce": 2837,
      "supermarket": 2838,
      "profess": 2839,
      "predic": 2840,
      "nap": 2841,
      "vator": 2842,
      "alco": 2843,
      "ney": 2844,
      "antly": 2845,
      "within": 2846,
      "space": 2847,
      "winning": 2848,
      "spot": 2849,
      "system": 2850,
      "crossed": 2851,
      "naive": 2852,
      "obviously": 2853,
      "nurse": 2854,
      "delighted": 2855,
      "ghost": 2856,
      "ws": 2857,
      "repair": 2858,
      "ison": 2859,
      "lift": 2860,
      "sale": 2861,
      "proof": 2862,
      "managed": 2863,
      "wore": 2864,
      "believes": 2865,
      "hire": 2866,
      "pretended": 2867,
      "shall": 2868,
      "elevator": 2869,
      "transl": 2870,
      "pressure": 2871,
      "survive": 2872,
      "intellig": 2873,
      "awe": 2874,
      "camp": 2875,
      "hig": 2876,
      "jack": 2877,
      "ns": 2878,
      "page": 2879,
      "spl": 2880,
      "tend": 2881,
      "thirsty": 2882,
      "intention": 2883,
      "chine": 2884,
      "aret": 2885,
      "unfortunately": 2886,
      "ateful": 2887,
      "happiness": 2888,
      "amed": 2889,
      "icked": 2890,
      "closer": 2891,
      "ears": 2892,
      "rub": 2893,
      "grateful": 2894,
      "dentist": 2895,
      "matters": 2896,
      "sisters": 2897,
      "psy": 2898,
      "facts": 2899,
      "suffer": 2900,
      "issue": 2901,
      "awesome": 2902,
      "chinese": 2903,
      "itor": 2904,
      "twent": 2905,
      "york": 2906,
      "towel": 2907,
      "ings": 2908,
      "edu": 2909,
      "stun": 2910,
      "arrow": 2911,
      "fever": 2912,
      "thered": 2913,
      "pota": 2914,
      "stock": 2915,
      "ulation": 2916,
      "illeg": 2917,
      "disease": 2918,
      "shoot": 2919,
      "useful": 2920,
      "tical": 2921,
      "accor": 2922,
      "badly": 2923,
      "answers": 2924,
      "imagination": 2925,
      "volunte": 2926,
      "cigaret": 2927,
      "twenty": 2928,
      "hated": 2929,
      "ilo": 2930,
      "jour": 2931,
      "mate": 2932,
      "pants": 2933,
      "sour": 2934,
      "thro": 2935,
      "inst": 2936,
      "stre": 2937,
      "behave": 2938,
      "unless": 2939,
      "acqu": 2940,
      "improve": 2941,
      "concentr": 2942,
      "dying": 2943,
      "bum": 2944,
      "pron": 2945,
      "forest": 2946,
      "speaker": 2947,
      "serve": 2948,
      "promises": 2949,
      "crack": 2950,
      "patience": 2951,
      "salary": 2952,
      "costs": 2953,
      "bathroom": 2954,
      "relieve": 2955,
      "threw": 2956,
      "sofa": 2957,
      "organized": 2958,
      "london": 2959,
      "credit": 2960,
      "emergency": 2961,
      "ilet": 2962,
      "toilet": 2963,
      "ane": 2964,
      "loss": 2965,
      "tiv": 2966,
      "cops": 2967,
      "knowled": 2968,
      "unlikely": 2969,
      "carried": 2970,
      "offic": 2971,
      "gives": 2972,
      "reasonable": 2973,
      "denied": 2974,
      "sym": 2975,
      "woods": 2976,
      "nonsense": 2977,
      "frightened": 2978,
      "horrible": 2979,
      "bul": 2980,
      "dating": 2981,
      "fil": 2982,
      "fash": 2983,
      "tomed": 2984,
      "insu": 2985,
      "request": 2986,
      "neck": 2987,
      "compare": 2988,
      "race": 2989,
      "cking": 2990,
      "gue": 2991,
      "oldest": 2992,
      "chest": 2993,
      "passeng": 2994,
      "thirteen": 2995,
      "conscious": 2996,
      "fallen": 2997,
      "factory": 2998,
      "staring": 2999,
      "pockets": 3000,
      "advantage": 3001,
      "accustomed": 3002,
      "passengers": 3003,
      "naked": 3004,
      "pill": 3005,
      "rarely": 3006,
      "sant": 3007,
      "slight": 3008,
      "wit": 3009,
      "thin": 3010,
      "enced": 3011,
      "roses": 3012,
      "alter": 3013,
      "impro": 3014,
      "marri": 3015,
      "delay": 3016,
      "file": 3017,
      "themselves": 3018,
      "runs": 3019,
      "picnic": 3020,
      "cloud": 3021,
      "advance": 3022,
      "falling": 3023,
      "crimin": 3024,
      "graph": 3025,
      "copy": 3026,
      "suspicious": 3027,
      "touched": 3028,
      "cruel": 3029,
      "accepted": 3030,
      "barely": 3031,
      "kne": 3032,
      "nail": 3033,
      "twin": 3034,
      "insur": 3035,
      "remar": 3036,
      "orter": 3037,
      "state": 3038,
      "ert": 3039,
      "chin": 3040,
      "alarm": 3041,
      "suic": 3042,
      "express": 3043,
      "permit": 3044,
      "lovely": 3045,
      "dies": 3046,
      "cheese": 3047,
      "mped": 3048,
      "frank": 3049,
      "logy": 3050,
      "classroom": 3051,
      "treated": 3052,
      "foolish": 3053,
      "ugly": 3054,
      "temperature": 3055,
      "recommend": 3056,
      "abandoned": 3057,
      "according": 3058,
      "dish": 3059,
      "fence": 3060,
      "ga": 3061,
      "ler": 3062,
      "stom": 3063,
      "reply": 3064,
      "armed": 3065,
      "rock": 3066,
      "mode": 3067,
      "shelf": 3068,
      "irm": 3069,
      "def": 3070,
      "program": 3071,
      "fold": 3072,
      "consu": 3073,
      "raised": 3074,
      "diary": 3075,
      "stranger": 3076,
      "prize": 3077,
      "dumb": 3078,
      "cooked": 3079,
      "smells": 3080,
      "neighborhood": 3081,
      "snake": 3082,
      "jumped": 3083,
      "brief": 3084,
      "damage": 3085,
      "sharp": 3086,
      "betrayed": 3087,
      "audience": 3088,
      "group": 3089,
      "saturday": 3090,
      "omy": 3091,
      "rab": 3092,
      "sang": 3093,
      "tes": 3094,
      "retired": 3095,
      "resc": 3096,
      "error": 3097,
      "goal": 3098,
      "goti": 3099,
      "negoti": 3100,
      "nowhere": 3101,
      "aches": 3102,
      "exist": 3103,
      "const": 3104,
      "que": 3105,
      "compet": 3106,
      "grass": 3107,
      "smiled": 3108,
      "shape": 3109,
      "stronger": 3110,
      "suggested": 3111,
      "jokes": 3112,
      "receive": 3113,
      "discussion": 3114,
      "postp": 3115,
      "talented": 3116,
      "magazine": 3117,
      "contract": 3118,
      "ith": 3119,
      "math": 3120,
      "tw": 3121,
      "itu": 3122,
      "hole": 3123,
      "impatient": 3124,
      "ainted": 3125,
      "yellow": 3126,
      "conven": 3127,
      "commun": 3128,
      "bud": 3129,
      "lately": 3130,
      "decor": 3131,
      "content": 3132,
      "spends": 3133,
      "corner": 3134,
      "bothering": 3135,
      "recognized": 3136,
      "chall": 3137,
      "depends": 3138,
      "science": 3139,
      "critic": 3140,
      "illegal": 3141,
      "fashion": 3142,
      "santa": 3143,
      "shave": 3144,
      "wasting": 3145,
      "allerg": 3146,
      "coinc": 3147,
      "track": 3148,
      "ices": 3149,
      "aint": 3150,
      "amps": 3151,
      "dece": 3152,
      "wheel": 3153,
      "disg": 3154,
      "checked": 3155,
      "highly": 3156,
      "population": 3157,
      "drawer": 3158,
      "crowded": 3159,
      "strict": 3160,
      "banan": 3161,
      "difficulty": 3162,
      "responsibility": 3163,
      "cong": 3164,
      "pushed": 3165,
      "vase": 3166,
      "ashed": 3167,
      "net": 3168,
      "unusual": 3169,
      "quar": 3170,
      "rooms": 3171,
      "finite": 3172,
      "kinds": 3173,
      "desp": 3174,
      "france": 3175,
      "safety": 3176,
      "obje": 3177,
      "cleaning": 3178,
      "examination": 3179,
      "tongue": 3180,
      "bottom": 3181,
      "punct": 3182,
      "eventually": 3183,
      "invitation": 3184,
      "insurance": 3185,
      "13": 3186,
      "dare": 3187,
      "fan": 3188,
      "lent": 3189,
      "lack": 3190,
      "lted": 3191,
      "pond": 3192,
      "swear": 3193,
      "inse": 3194,
      "meals": 3195,
      "ering": 3196,
      "hobby": 3197,
      "force": 3198,
      "tied": 3199,
      "action": 3200,
      "ify": 3201,
      "shoulder": 3202,
      "convers": 3203,
      "helpful": 3204,
      "tells": 3205,
      "bleed": 3206,
      "spread": 3207,
      "planned": 3208,
      "paired": 3209,
      "clus": 3210,
      "doctors": 3211,
      "hug": 3212,
      "object": 3213,
      "prisoners": 3214,
      "volu": 3215,
      "tempt": 3216,
      "gentle": 3217,
      "pulled": 3218,
      "introduced": 3219,
      "assume": 3220,
      "divorced": 3221,
      "describe": 3222,
      "marriage": 3223,
      "suicide": 3224,
      "ots": 3225,
      "vided": 3226,
      "repaired": 3227,
      "iting": 3228,
      "orange": 3229,
      "stress": 3230,
      "army": 3231,
      "lect": 3232,
      "nois": 3233,
      "unable": 3234,
      "conclus": 3235,
      "houses": 3236,
      "downstairs": 3237,
      "master": 3238,
      "drives": 3239,
      "capital": 3240,
      "orders": 3241,
      "succeeded": 3242,
      "reliable": 3243,
      "climbed": 3244,
      "operation": 3245,
      "knocked": 3246,
      "cousin": 3247,
      "guests": 3248,
      "intelligent": 3249,
      "mble": 3250,
      "oven": 3251,
      "rer": 3252,
      "refri": 3253,
      "ism": 3254,
      "hello": 3255,
      "env": 3256,
      "stren": 3257,
      "neare": 3258,
      "coll": 3259,
      "stories": 3260,
      "progress": 3261,
      "illness": 3262,
      "aff": 3263,
      "chosen": 3264,
      "misunderstanding": 3265,
      "chee": 3266,
      "contain": 3267,
      "voted": 3268,
      "successful": 3269,
      "scient": 3270,
      "castle": 3271,
      "explosion": 3272,
      "drowned": 3273,
      "potatoes": 3274,
      "relieved": 3275,
      "model": 3276,
      "conversation": 3277,
      "refriger": 3278,
      "cure": 3279,
      "igh": 3280,
      "lin": 3281,
      "wis": 3282,
      "meth": 3283,
      "aside": 3284,
      "aled": 3285,
      "tip": 3286,
      "terms": 3287,
      "iculous": 3288,
      "saving": 3289,
      "wherever": 3290,
      "ours": 3291,
      "ounce": 3292,
      "friendship": 3293,
      "pale": 3294,
      "desper": 3295,
      "shame": 3296,
      "scri": 3297,
      "smaller": 3298,
      "drove": 3299,
      "horses": 3300,
      "awful": 3301,
      "complained": 3302,
      "pieces": 3303,
      "ridiculous": 3304,
      "selling": 3305,
      "borrowed": 3306,
      "silence": 3307,
      "arguing": 3308,
      "americans": 3309,
      "pleasant": 3310,
      "breathe": 3311,
      "education": 3312,
      "rabbit": 3313,
      "punctual": 3314,
      "refrigerator": 3315,
      "aunt": 3316,
      "gam": 3317,
      "kilo": 3318,
      "pes": 3319,
      "xious": 3320,
      "ym": 3321,
      "reserv": 3322,
      "meas": 3323,
      "roll": 3324,
      "ality": 3325,
      "dev": 3326,
      "extra": 3327,
      "rap": 3328,
      "artist": 3329,
      "understands": 3330,
      "phys": 3331,
      "survi": 3332,
      "laid": 3333,
      "parti": 3334,
      "airplane": 3335,
      "invite": 3336,
      "sundays": 3337,
      "enjoying": 3338,
      "custom": 3339,
      "german": 3340,
      "opti": 3341,
      "cleaned": 3342,
      "discussed": 3343,
      "entirely": 3344,
      "concern": 3345,
      "fingers": 3346,
      "fortunate": 3347,
      "leader": 3348,
      "persuade": 3349,
      "occurred": 3350,
      "sandwich": 3351,
      "knowledge": 3352,
      "alternative": 3353,
      "blow": 3354,
      "cin": 3355,
      "cket": 3356,
      "flying": 3357,
      "kn": 3358,
      "oce": 3359,
      "rac": 3360,
      "rush": 3361,
      "sink": 3362,
      "thick": 3363,
      "theater": 3364,
      "ann": 3365,
      "sty": 3366,
      "bomb": 3367,
      "plants": 3368,
      "odd": 3369,
      "defe": 3370,
      "illy": 3371,
      "direct": 3372,
      "disagree": 3373,
      "childhood": 3374,
      "cheaper": 3375,
      "contri": 3376,
      "foods": 3377,
      "shake": 3378,
      "worrying": 3379,
      "election": 3380,
      "dreaming": 3381,
      "gunshot": 3382,
      "midnight": 3383,
      "argue": 3384,
      "newspapers": 3385,
      "relation": 3386,
      "evidence": 3387,
      "assistance": 3388,
      "repeat": 3389,
      "determin": 3390,
      "destroyed": 3391,
      "jackson": 3392,
      "coincidence": 3393,
      "nearest": 3394,
      "fal": 3395,
      "gate": 3396,
      "nal": 3397,
      "zzy": 3398,
      "orig": 3399,
      "stars": 3400,
      "stamps": 3401,
      "eral": 3402,
      "weigh": 3403,
      "seated": 3404,
      "tech": 3405,
      "ung": 3406,
      "definite": 3407,
      "poison": 3408,
      "mayor": 3409,
      "hurried": 3410,
      "surround": 3411,
      "opening": 3412,
      "trick": 3413,
      "confess": 3414,
      "effort": 3415,
      "capable": 3416,
      "puzz": 3417,
      "seats": 3418,
      "valu": 3419,
      "relaxed": 3420,
      "attacked": 3421,
      "ignored": 3422,
      "members": 3423,
      "ambitious": 3424,
      "stomach": 3425,
      "bal": 3426,
      "ians": 3427,
      "ji": 3428,
      "narrow": 3429,
      "pity": 3430,
      "yard": 3431,
      "rep": 3432,
      "meters": 3433,
      "dozen": 3434,
      "wealth": 3435,
      "bea": 3436,
      "belt": 3437,
      "chu": 3438,
      "chances": 3439,
      "cot": 3440,
      "ically": 3441,
      "focus": 3442,
      "percent": 3443,
      "spir": 3444,
      "offended": 3445,
      "diag": 3446,
      "dizzy": 3447,
      "ures": 3448,
      "parties": 3449,
      "ignor": 3450,
      "bags": 3451,
      "burst": 3452,
      "regular": 3453,
      "appears": 3454,
      "robbed": 3455,
      "wounded": 3456,
      "prevented": 3457,
      "employe": 3458,
      "china": 3459,
      "dust": 3460,
      "ius": 3461,
      "ker": 3462,
      "rate": 3463,
      "sses": 3464,
      "tro": 3465,
      "zing": 3466,
      "zer": 3467,
      "cand": 3468,
      "socks": 3469,
      "ability": 3470,
      "motor": 3471,
      "mobi": 3472,
      "amount": 3473,
      "studies": 3474,
      "ruined": 3475,
      "ficient": 3476,
      "bling": 3477,
      "lesson": 3478,
      "friday": 3479,
      "resist": 3480,
      "counting": 3481,
      "current": 3482,
      "fortune": 3483,
      "apology": 3484,
      "barking": 3485,
      "novels": 3486,
      "service": 3487,
      "generous": 3488,
      "mirror": 3489,
      "cancel": 3490,
      "canceled": 3491,
      "alcohol": 3492,
      "relationship": 3493,
      "origin": 3494,
      "beauty": 3495,
      "mobile": 3496,
      "cree": 3497,
      "cated": 3498,
      "cult": 3499,
      "cycle": 3500,
      "fli": 3501,
      "iest": 3502,
      "atics": 3503,
      "stain": 3504,
      "hall": 3505,
      "separ": 3506,
      "offered": 3507,
      "limit": 3508,
      "acy": 3509,
      "peel": 3510,
      "shorter": 3511,
      "deaf": 3512,
      "faith": 3513,
      "lasted": 3514,
      "gled": 3515,
      "field": 3516,
      "elected": 3517,
      "mathem": 3518,
      "experienced": 3519,
      "mountains": 3520,
      "fifty": 3521,
      "record": 3522,
      "split": 3523,
      "concentrate": 3524,
      "farm": 3525,
      "kicked": 3526,
      "mic": 3527,
      "pin": 3528,
      "pted": 3529,
      "sides": 3530,
      "oured": 3531,
      "height": 3532,
      "arian": 3533,
      "bered": 3534,
      "beard": 3535,
      "whis": 3536,
      "rose": 3537,
      "timid": 3538,
      "accom": 3539,
      "trad": 3540,
      "irts": 3541,
      "sometime": 3542,
      "fog": 3543,
      "rail": 3544,
      "tense": 3545,
      "brown": 3546,
      "handsome": 3547,
      "jobs": 3548,
      "useless": 3549,
      "decl": 3550,
      "paris": 3551,
      "mates": 3552,
      "bitten": 3553,
      "supper": 3554,
      "hibit": 3555,
      "headed": 3556,
      "skill": 3557,
      "changing": 3558,
      "warning": 3559,
      "exciting": 3560,
      "publ": 3561,
      "advise": 3562,
      "collect": 3563,
      "approach": 3564,
      "south": 3565,
      "animal": 3566,
      "relig": 3567,
      "deeply": 3568,
      "cases": 3569,
      "mirac": 3570,
      "divorce": 3571,
      "bench": 3572,
      "incredible": 3573,
      "profession": 3574,
      "ocean": 3575,
      "false": 3576,
      "cul": 3577,
      "dig": 3578,
      "fy": 3579,
      "fant": 3580,
      "gloves": 3581,
      "hon": 3582,
      "mbered": 3583,
      "oh": 3584,
      "silly": 3585,
      "regard": 3586,
      "anci": 3587,
      "anced": 3588,
      "anxious": 3589,
      "erk": 3590,
      "loan": 3591,
      "load": 3592,
      "myster": 3593,
      "imate": 3594,
      "trap": 3595,
      "sales": 3596,
      "quali": 3597,
      "helps": 3598,
      "prepar": 3599,
      "anged": 3600,
      "cares": 3601,
      "foreig": 3602,
      "final": 3603,
      "finding": 3604,
      "cip": 3605,
      "laun": 3606,
      "kindness": 3607,
      "compan": 3608,
      "begun": 3609,
      "juice": 3610,
      "fridge": 3611,
      "scen": 3612,
      "logical": 3613,
      "options": 3614,
      "deny": 3615,
      "attended": 3616,
      "genius": 3617,
      "couraged": 3618,
      "curtain": 3619,
      "suggestion": 3620,
      "ential": 3621,
      "unex": 3622,
      "argument": 3623,
      "square": 3624,
      "related": 3625,
      "strike": 3626,
      "committed": 3627,
      "survived": 3628,
      "tempted": 3629,
      "persuaded": 3630,
      "planted": 3631,
      "weapon": 3632,
      "admire": 3633,
      "customers": 3634,
      "desperate": 3635,
      "mathematics": 3636,
      "50": 3637,
      "ai": 3638,
      "cough": 3639,
      "ctor": 3640,
      "center": 3641,
      "fond": 3642,
      "lou": 3643,
      "scold": 3644,
      "tar": 3645,
      "uce": 3646,
      "ata": 3647,
      "asing": 3648,
      "becoming": 3649,
      "loaded": 3650,
      "wild": 3651,
      "sore": 3652,
      "knowing": 3653,
      "unlucky": 3654,
      "uncomfortable": 3655,
      "moder": 3656,
      "okay": 3657,
      "plate": 3658,
      "pot": 3659,
      "ives": 3660,
      "ults": 3661,
      "brain": 3662,
      "cheated": 3663,
      "flood": 3664,
      "option": 3665,
      "begins": 3666,
      "confidence": 3667,
      "captain": 3668,
      "holding": 3669,
      "complaints": 3670,
      "medical": 3671,
      "north": 3672,
      "bargain": 3673,
      "insane": 3674,
      "appropri": 3675,
      "purse": 3676,
      "violin": 3677,
      "debt": 3678,
      "annoying": 3679,
      "properly": 3680,
      "interrupt": 3681,
      "national": 3682,
      "turning": 3683,
      "graduated": 3684,
      "document": 3685,
      "higher": 3686,
      "disgust": 3687,
      "streng": 3688,
      "alike": 3689,
      "poured": 3690,
      "vid": 3691,
      "income": 3692,
      "stamp": 3693,
      "forts": 3694,
      "addic": 3695,
      "actor": 3696,
      "ference": 3697,
      "plu": 3698,
      "spell": 3699,
      "bulle": 3700,
      "applic": 3701,
      "putting": 3702,
      "mondays": 3703,
      "named": 3704,
      "blan": 3705,
      "teaches": 3706,
      "efforts": 3707,
      "boxes": 3708,
      "decisions": 3709,
      "simply": 3710,
      "honesty": 3711,
      "entire": 3712,
      "positive": 3713,
      "impression": 3714,
      "direction": 3715,
      "screaming": 3716,
      "places": 3717,
      "disturbed": 3718,
      "stunned": 3719,
      "compared": 3720,
      "delayed": 3721,
      "clouds": 3722,
      "itude": 3723,
      "allergic": 3724,
      "reservation": 3725,
      "definitely": 3726,
      "100": 3727,
      "aver": 3728,
      "aut": 3729,
      "bare": 3730,
      "dess": 3731,
      "double": 3732,
      "ires": 3733,
      "lines": 3734,
      "mt": 3735,
      "sne": 3736,
      "iny": 3737,
      "informed": 3738,
      "thetic": 3739,
      "eds": 3740,
      "enem": 3741,
      "ency": 3742,
      "envelo": 3743,
      "sess": 3744,
      "chief": 3745,
      "vert": 3746,
      "rots": 3747,
      "excep": 3748,
      "yelling": 3749,
      "indust": 3750,
      "whoever": 3751,
      "affect": 3752,
      "chose": 3753,
      "drag": 3754,
      "disappeared": 3755,
      "shoe": 3756,
      "sitive": 3757,
      "keeping": 3758,
      "mater": 3759,
      "rainy": 3760,
      "sett": 3761,
      "writes": 3762,
      "sensitive": 3763,
      "password": 3764,
      "internet": 3765,
      "ringing": 3766,
      "traveled": 3767,
      "signed": 3768,
      "recovered": 3769,
      "azz": 3770,
      "doubts": 3771,
      "paintings": 3772,
      "admitted": 3773,
      "package": 3774,
      "danced": 3775,
      "straw": 3776,
      "practic": 3777,
      "loudly": 3778,
      "politics": 3779,
      "website": 3780,
      "fifteen": 3781,
      "threatened": 3782,
      "weapons": 3783,
      "electricity": 3784,
      "adopted": 3785,
      "gentleman": 3786,
      "noisy": 3787,
      "method": 3788,
      "optimis": 3789,
      "determined": 3790,
      "strength": 3791,
      "enemies": 3792,
      "cit": 3793,
      "nature": 3794,
      "ption": 3795,
      "vit": 3796,
      "edge": 3797,
      "ening": 3798,
      "stared": 3799,
      "bee": 3800,
      "whist": 3801,
      "album": 3802,
      "ably": 3803,
      "shout": 3804,
      "blew": 3805,
      "ounced": 3806,
      "ilities": 3807,
      "affair": 3808,
      "wondered": 3809,
      "stub": 3810,
      "closet": 3811,
      "lugg": 3812,
      "funeral": 3813,
      "bitter": 3814,
      "scene": 3815,
      "accidents": 3816,
      "nearby": 3817,
      "humor": 3818,
      "agreement": 3819,
      "secrets": 3820,
      "eleph": 3821,
      "eleven": 3822,
      "papers": 3823,
      "engaged": 3824,
      "miles": 3825,
      "fascin": 3826,
      "photograph": 3827,
      "ibly": 3828,
      "tured": 3829,
      "reminds": 3830,
      "entrance": 3831,
      "demanded": 3832,
      "skinny": 3833,
      "victi": 3834,
      "drugs": 3835,
      "celebrate": 3836,
      "hesitate": 3837,
      "instructions": 3838,
      "investigation": 3839,
      "frankly": 3840,
      "louder": 3841,
      "modern": 3842,
      "appropriate": 3843,
      "dessert": 3844,
      "18": 3845,
      "bage": 3846,
      "data": 3847,
      "fus": 3848,
      "lar": 3849,
      "pound": 3850,
      "ured": 3851,
      "wished": 3852,
      "topic": 3853,
      "ining": 3854,
      "invent": 3855,
      "ising": 3856,
      "leak": 3857,
      "rot": 3858,
      "mosqu": 3859,
      "pper": 3860,
      "trunk": 3861,
      "ustr": 3862,
      "icated": 3863,
      "poin": 3864,
      "atest": 3865,
      "contest": 3866,
      "goods": 3867,
      "angers": 3868,
      "believ": 3869,
      "liter": 3870,
      "greatest": 3871,
      "classes": 3872,
      "trained": 3873,
      "prior": 3874,
      "sounded": 3875,
      "crash": 3876,
      "obli": 3877,
      "court": 3878,
      "apologized": 3879,
      "insist": 3880,
      "value": 3881,
      "screen": 3882,
      "swit": 3883,
      "deserves": 3884,
      "generally": 3885,
      "battle": 3886,
      "ratul": 3887,
      "2013": 3888,
      "stealing": 3889,
      "criminal": 3890,
      "remark": 3891,
      "gathered": 3892,
      "congratul": 3893,
      "bleeding": 3894,
      "surrounded": 3895,
      "diagno": 3896,
      "accompl": 3897,
      "fantastic": 3898,
      "luggage": 3899,
      "bon": 3900,
      "bly": 3901,
      "bound": 3902,
      "fake": 3903,
      "fought": 3904,
      "wha": 3905,
      "tower": 3906,
      "toward": 3907,
      "reck": 3908,
      "stat": 3909,
      "section": 3910,
      "neg": 3911,
      "abor": 3912,
      "agger": 3913,
      "mud": 3914,
      "carrots": 3915,
      "pray": 3916,
      "handy": 3917,
      "turns": 3918,
      "parking": 3919,
      "walks": 3920,
      "breaking": 3921,
      "answering": 3922,
      "biggest": 3923,
      "border": 3924,
      "surprising": 3925,
      "reasons": 3926,
      "gging": 3927,
      "salad": 3928,
      "expert": 3929,
      "terrified": 3930,
      "inclu": 3931,
      "hopes": 3932,
      "packed": 3933,
      "hanging": 3934,
      "tracted": 3935,
      "politic": 3936,
      "hammer": 3937,
      "econom": 3938,
      "economy": 3939,
      "film": 3940,
      "employees": 3941,
      "qualified": 3942,
      "envelope": 3943,
      "bid": 3944,
      "ee": 3945,
      "ered": 3946,
      "fate": 3947,
      "flies": 3948,
      "firm": 3949,
      "lap": 3950,
      "phe": 3951,
      "por": 3952,
      "tent": 3953,
      "wing": 3954,
      "wave": 3955,
      "relat": 3956,
      "remove": 3957,
      "meter": 3958,
      "secur": 3959,
      "local": 3960,
      "social": 3961,
      "ambul": 3962,
      "sail": 3963,
      "exchange": 3964,
      "happier": 3965,
      "buried": 3966,
      "shots": 3967,
      "sons": 3968,
      "sors": 3969,
      "pathetic": 3970,
      "remembered": 3971,
      "accur": 3972,
      "founded": 3973,
      "owns": 3974,
      "crashed": 3975,
      "resour": 3976,
      "snowing": 3977,
      "visiting": 3978,
      "computers": 3979,
      "largest": 3980,
      "sells": 3981,
      "occas": 3982,
      "recei": 3983,
      "struck": 3984,
      "burning": 3985,
      "beyond": 3986,
      "violence": 3987,
      "greeted": 3988,
      "basketball": 3989,
      "journal": 3990,
      "throat": 3991,
      "published": 3992,
      "average": 3993,
      "optimistic": 3994,
      "larger": 3995,
      "security": 3996,
      "bark": 3997,
      "baked": 3998,
      "cave": 3999,
      "ior": 4000,
      "rise": 4001,
      "ske": 4002,
      "van": 4003,
      "vant": 4004,
      "vain": 4005,
      "xed": 4006,
      "influ": 4007,
      "removed": 4008,
      "enge": 4009,
      "west": 4010,
      "beef": 4011,
      "chic": 4012,
      "charm": 4013,
      "loy": 4014,
      "cow": 4015,
      "cooper": 4016,
      "ples": 4017,
      "upon": 4018,
      "ends": 4019,
      "conse": 4020,
      "constru": 4021,
      "spite": 4022,
      "selfish": 4023,
      "miser": 4024,
      "downtown": 4025,
      "uses": 4026,
      "grant": 4027,
      "pardon": 4028,
      "fund": 4029,
      "izen": 4030,
      "pected": 4031,
      "sunglasses": 4032,
      "farmer": 4033,
      "kissing": 4034,
      "complex": 4035,
      "picking": 4036,
      "streets": 4037,
      "male": 4038,
      "screw": 4039,
      "unemp": 4040,
      "risks": 4041,
      "magic": 4042,
      "embarrassing": 4043,
      "soft": 4044,
      "holidays": 4045,
      "fuji": 4046,
      "assistant": 4047,
      "increase": 4048,
      "disturb": 4049,
      "translated": 4050,
      "suffering": 4051,
      "cigarettes": 4052,
      "witness": 4053,
      "snakes": 4054,
      "challenge": 4055,
      "survivor": 4056,
      "professional": 4057,
      "unexpected": 4058,
      "scolded": 4059,
      "citizen": 4060,
      "stubborn": 4061,
      "mosqui": 4062,
      "ambulance": 4063,
      "honey": 4064,
      "jazz": 4065,
      "mantic": 4066,
      "var": 4067,
      "online": 4068,
      "itself": 4069,
      "orang": 4070,
      "ordin": 4071,
      "lean": 4072,
      "ays": 4073,
      "chan": 4074,
      "romantic": 4075,
      "coach": 4076,
      "coward": 4077,
      "unfair": 4078,
      "imp": 4079,
      "dete": 4080,
      "develo": 4081,
      "fox": 4082,
      "conference": 4083,
      "gotta": 4084,
      "compe": 4085,
      "afri": 4086,
      "cleared": 4087,
      "truly": 4088,
      "bru": 4089,
      "earns": 4090,
      "shook": 4091,
      "frustr": 4092,
      "closely": 4093,
      "logist": 4094,
      "germany": 4095,
      "craw": 4096,
      "berries": 4097,
      "planet": 4098,
      "signific": 4099,
      "experiment": 4100,
      "frequ": 4101,
      "subway": 4102,
      "silver": 4103,
      "gifts": 4104,
      "oppo": 4105,
      "photos": 4106,
      "champ": 4107,
      "searched": 4108,
      "appearance": 4109,
      "committee": 4110,
      "claus": 4111,
      "bowl": 4112,
      "tourists": 4113,
      "relevant": 4114,
      "circle": 4115,
      "improved": 4116,
      "miracle": 4117,
      "ancient": 4118,
      "preparing": 4119,
      "disgusting": 4120,
      "believable": 4121,
      "diagnosed": 4122,
      "oranges": 4123,
      "jury": 4124,
      "tat": 4125,
      "vard": 4126,
      "research": 4127,
      "issors": 4128,
      "arily": 4129,
      "goals": 4130,
      "wasted": 4131,
      "candy": 4132,
      "sop": 4133,
      "cere": 4134,
      "ppy": 4135,
      "comment": 4136,
      "spain": 4137,
      "discovered": 4138,
      "shock": 4139,
      "starts": 4140,
      "minor": 4141,
      "scissors": 4142,
      "gery": 4143,
      "cris": 4144,
      "warmer": 4145,
      "effect": 4146,
      "terrific": 4147,
      "sleeve": 4148,
      "acceptable": 4149,
      "imagined": 4150,
      "grave": 4151,
      "tub": 4152,
      "sweat": 4153,
      "climbing": 4154,
      "general": 4155,
      "products": 4156,
      "harvard": 4157,
      "slipped": 4158,
      "robber": 4159,
      "required": 4160,
      "notebook": 4161,
      "departure": 4162,
      "documents": 4163,
      "dawn": 4164,
      "officer": 4165,
      "volume": 4166,
      "lecture": 4167,
      "valuable": 4168,
      "invented": 4169,
      "ah": 4170,
      "cities": 4171,
      "gym": 4172,
      "mouse": 4173,
      "osa": 4174,
      "pig": 4175,
      "rare": 4176,
      "sno": 4177,
      "total": 4178,
      "itali": 4179,
      "hook": 4180,
      "loser": 4181,
      "advert": 4182,
      "ceiling": 4183,
      "unde": 4184,
      "fective": 4185,
      "sheep": 4186,
      "tron": 4187,
      "trous": 4188,
      "pless": 4189,
      "amond": 4190,
      "protest": 4191,
      "uled": 4192,
      "reads": 4193,
      "spy": 4194,
      "buted": 4195,
      "bug": 4196,
      "mance": 4197,
      "diamond": 4198,
      "applied": 4199,
      "misunderstood": 4200,
      "brit": 4201,
      "phoned": 4202,
      "mony": 4203,
      "visitor": 4204,
      "lawn": 4205,
      "merry": 4206,
      "personally": 4207,
      "haircut": 4208,
      "skirt": 4209,
      "numbers": 4210,
      "interpre": 4211,
      "jected": 4212,
      "umn": 4213,
      "recover": 4214,
      "maid": 4215,
      "medication": 4216,
      "disappoint": 4217,
      "freed": 4218,
      "flash": 4219,
      "bills": 4220,
      "punish": 4221,
      "remains": 4222,
      "fluently": 4223,
      "powerful": 4224,
      "thorough": 4225,
      "grown": 4226,
      "bananas": 4227,
      "motorcycle": 4228,
      "mystery": 4229,
      "autumn": 4230,
      "underest": 4231,
      "eager": 4232,
      "gor": 4233,
      "mall": 4234,
      "pitch": 4235,
      "sday": 4236,
      "task": 4237,
      "wide": 4238,
      "toy": 4239,
      "replace": 4240,
      "lemon": 4241,
      "wever": 4242,
      "lim": 4243,
      "chat": 4244,
      "arent": 4245,
      "however": 4246,
      "tious": 4247,
      "code": 4248,
      "cows": 4249,
      "boots": 4250,
      "suits": 4251,
      "hers": 4252,
      "quality": 4253,
      "autom": 4254,
      "spin": 4255,
      "apparent": 4256,
      "distracted": 4257,
      "dreamed": 4258,
      "suppor": 4259,
      "intended": 4260,
      "trains": 4261,
      "importance": 4262,
      "refre": 4263,
      "bio": 4264,
      "legal": 4265,
      "buildings": 4266,
      "terribly": 4267,
      "respond": 4268,
      "prisoner": 4269,
      "taxes": 4270,
      "soul": 4271,
      "agrees": 4272,
      "vegetarian": 4273,
      "assumed": 4274,
      "require": 4275,
      "equal": 4276,
      "stret": 4277,
      "nails": 4278,
      "twins": 4279,
      "permitted": 4280,
      "convenient": 4281,
      "laundry": 4282,
      "scenery": 4283,
      "consequ": 4284,
      "granted": 4285,
      "crisis": 4286,
      "aim": 4287,
      "bunch": 4288,
      "fted": 4289,
      "jerk": 4290,
      "ox": 4291,
      "plo": 4292,
      "ram": 4293,
      "slo": 4294,
      "ware": 4295,
      "toys": 4296,
      "retire": 4297,
      "asy": 4298,
      "iders": 4299,
      "sees": 4300,
      "holic": 4301,
      "alle": 4302,
      "canadi": 4303,
      "geous": 4304,
      "unconscious": 4305,
      "accompan": 4306,
      "mote": 4307,
      "motiv": 4308,
      "histic": 4309,
      "shirts": 4310,
      "aggress": 4311,
      "command": 4312,
      "bucket": 4313,
      "choices": 4314,
      "iety": 4315,
      "earn": 4316,
      "handled": 4317,
      "sters": 4318,
      "hopeless": 4319,
      "surgery": 4320,
      "drew": 4321,
      "sleeps": 4322,
      "bled": 4323,
      "lightning": 4324,
      "supplies": 4325,
      "youngest": 4326,
      "spoon": 4327,
      "deadline": 4328,
      "effective": 4329,
      "captured": 4330,
      "examined": 4331,
      "calcul": 4332,
      "climate": 4333,
      "suitcases": 4334,
      "incident": 4335,
      "flag": 4336,
      "colors": 4337,
      "burgl": 4338,
      "snack": 4339,
      "dependent": 4340,
      "garbage": 4341,
      "grades": 4342,
      "evil": 4343,
      "rupt": 4344,
      "possibly": 4345,
      "slipp": 4346,
      "gained": 4347,
      "tempor": 4348,
      "impressive": 4349,
      "breathing": 4350,
      "released": 4351,
      "department": 4352,
      "placed": 4353,
      "bald": 4354,
      "incredibly": 4355,
      "volunteer": 4356,
      "cigarette": 4357,
      "source": 4358,
      "pronounce": 4359,
      "folded": 4360,
      "communic": 4361,
      "particip": 4362,
      "knit": 4363,
      "culture": 4364,
      "tradition": 4365,
      "bullet": 4366,
      "settled": 4367,
      "accurate": 4368,
      "miserable": 4369,
      "tattoo": 4370,
      "sophistic": 4371,
      "ceremony": 4372,
      "canadians": 4373,
      "sophisticated": 4374,
      "fers": 4375,
      "glo": 4376,
      "gage": 4377,
      "slice": 4378,
      "twe": 4379,
      "inch": 4380,
      "aston": 4381,
      "nod": 4382,
      "noti": 4383,
      "beside": 4384,
      "below": 4385,
      "neat": 4386,
      "nowad": 4387,
      "candle": 4388,
      "coins": 4389,
      "ghter": 4390,
      "abs": 4391,
      "notes": 4392,
      "oker": 4393,
      "shed": 4394,
      "pered": 4395,
      "shif": 4396,
      "poll": 4397,
      "agers": 4398,
      "exagger": 4399,
      "provided": 4400,
      "compromise": 4401,
      "raw": 4402,
      "frog": 4403,
      "diplo": 4404,
      "pride": 4405,
      "apri": 4406,
      "bran": 4407,
      "rug": 4408,
      "nerve": 4409,
      "accent": 4410,
      "compli": 4411,
      "jeans": 4412,
      "settle": 4413,
      "laughter": 4414,
      "steak": 4415,
      "stepped": 4416,
      "humi": 4417,
      "classmates": 4418,
      "musician": 4419,
      "bringing": 4420,
      "tallest": 4421,
      "rings": 4422,
      "worthy": 4423,
      "sushi": 4424,
      "teenager": 4425,
      "fluent": 4426,
      "heavily": 4427,
      "clue": 4428,
      "flew": 4429,
      "admired": 4430,
      "achieved": 4431,
      "ghosts": 4432,
      "translation": 4433,
      "acquainted": 4434,
      "postponed": 4435,
      "budget": 4436,
      "collap": 4437,
      "style": 4438,
      "defeated": 4439,
      "chuck": 4440,
      "exception": 4441,
      "occasion": 4442,
      "skep": 4443,
      "ordinary": 4444,
      "accompanied": 4445,
      "nowadays": 4446,
      "humili": 4447,
      ",\"": 4448,
      "16": 4449,
      "bone": 4450,
      "bass": 4451,
      "fits": 4452,
      "fainted": 4453,
      "gri": 4454,
      "junk": 4455,
      "oth": 4456,
      "pit": 4457,
      "pir": 4458,
      "tit": 4459,
      "vir": 4460,
      "aries": 4461,
      "wire": 4462,
      "anti": 4463,
      "cano": 4464,
      "adult": 4465,
      "cock": 4466,
      "unbelievable": 4467,
      "active": 4468,
      "icy": 4469,
      "iff": 4470,
      "polic": 4471,
      "ague": 4472,
      "stopping": 4473,
      "provide": 4474,
      "helpless": 4475,
      "span": 4476,
      "spill": 4477,
      "apt": 4478,
      "pens": 4479,
      "mentally": 4480,
      "cloth": 4481,
      "discount": 4482,
      "fined": 4483,
      "pajam": 4484,
      "supply": 4485,
      "dumped": 4486,
      "cookie": 4487,
      "scrat": 4488,
      "attitude": 4489,
      "italy": 4490,
      "awfully": 4491,
      "complaint": 4492,
      "hidden": 4493,
      "valent": 4494,
      "screamed": 4495,
      "starving": 4496,
      "swing": 4497,
      "switch": 4498,
      "hoped": 4499,
      "normally": 4500,
      "steps": 4501,
      "basement": 4502,
      "treatment": 4503,
      "charges": 4504,
      "battery": 4505,
      "violent": 4506,
      "annoyed": 4507,
      "thousands": 4508,
      "particularly": 4509,
      "claim": 4510,
      "graduate": 4511,
      "constantly": 4512,
      "objective": 4513,
      "candles": 4514,
      "industry": 4515,
      "negative": 4516,
      "africa": 4517,
      "twelve": 4518,
      "policy": 4519,
      "pajamas": 4520,
      "aid": 4521,
      "aire": 4522,
      "bac": 4523,
      "cused": 4524,
      "emotion": 4525,
      "ials": 4526,
      "ka": 4527,
      "oting": 4528,
      "py": 4529,
      "tan": 4530,
      "uous": 4531,
      "wreck": 4532,
      "toler": 4533,
      "rejected": 4534,
      "onent": 4535,
      "aster": 4536,
      "stro": 4537,
      "stances": 4538,
      "staff": 4539,
      "beating": 4540,
      "lion": 4541,
      "lips": 4542,
      "loo": 4543,
      "loyed": 4544,
      "tex": 4545,
      "activ": 4546,
      "trapped": 4547,
      "plastic": 4548,
      "prohibit": 4549,
      "shoulders": 4550,
      "focused": 4551,
      "perfor": 4552,
      "frozen": 4553,
      "spiders": 4554,
      "guar": 4555,
      "guide": 4556,
      "carpet": 4557,
      "applau": 4558,
      "mistook": 4559,
      "rested": 4560,
      "overweight": 4561,
      "actress": 4562,
      "surren": 4563,
      "blon": 4564,
      "strangers": 4565,
      "privac": 4566,
      "menu": 4567,
      "heads": 4568,
      "hunting": 4569,
      "shade": 4570,
      "luckily": 4571,
      "laws": 4572,
      "beginner": 4573,
      "consci": 4574,
      "ships": 4575,
      "secretary": 4576,
      "baggage": 4577,
      "opinions": 4578,
      "deserved": 4579,
      "chairs": 4580,
      "excuses": 4581,
      "crossing": 4582,
      "teered": 4583,
      "skipped": 4584,
      "murdered": 4585,
      "knock": 4586,
      "obeyed": 4587,
      "damaged": 4588,
      "volunteered": 4589,
      "magazines": 4590,
      "difficulties": 4591,
      "electric": 4592,
      "circ": 4593,
      "pipe": 4594,
      "knee": 4595,
      "defend": 4596,
      "gambling": 4597,
      "collecting": 4598,
      "honor": 4599,
      "aimed": 4600,
      "charming": 4601,
      "unemployed": 4602,
      "significant": 4603,
      "frequently": 4604,
      "aggressive": 4605,
      "privacy": 4606,
      "based": 4607,
      "lish": 4608,
      "leng": 4609,
      "mal": 4610,
      "rus": 4611,
      "uish": 4612,
      "wand": 4613,
      "towards": 4614,
      "relu": 4615,
      "remote": 4616,
      "attempted": 4617,
      "ises": 4618,
      "asso": 4619,
      "sting": 4620,
      "stink": 4621,
      "stage": 4622,
      "level": 4623,
      "beans": 4624,
      "seas": 4625,
      "loose": 4626,
      "nel": 4627,
      "tires": 4628,
      "acts": 4629,
      "anytime": 4630,
      "fection": 4631,
      "trou": 4632,
      "worn": 4633,
      "ified": 4634,
      "demo": 4635,
      "proceed": 4636,
      "condu": 4637,
      "aven": 4638,
      "spelling": 4639,
      "asks": 4640,
      "bush": 4641,
      "handker": 4642,
      "sites": 4643,
      "cially": 4644,
      "cautious": 4645,
      "visa": 4646,
      "access": 4647,
      "mature": 4648,
      "ization": 4649,
      "mptom": 4650,
      "training": 4651,
      "heading": 4652,
      "igned": 4653,
      "arriving": 4654,
      "smooth": 4655,
      "rented": 4656,
      "corn": 4657,
      "humble": 4658,
      "ggy": 4659,
      "counter": 4660,
      "awk": 4661,
      "although": 4662,
      "century": 4663,
      "daughters": 4664,
      "engage": 4665,
      "walls": 4666,
      "seconds": 4667,
      "symptom": 4668,
      "imagin": 4669,
      "blamed": 4670,
      "approved": 4671,
      "bluff": 4672,
      "product": 4673,
      "conditions": 4674,
      "ladder": 4675,
      "charged": 4676,
      "suffered": 4677,
      "debate": 4678,
      "searching": 4679,
      "rumors": 4680,
      "scary": 4681,
      "drowning": 4682,
      "authority": 4683,
      "connected": 4684,
      "camping": 4685,
      "pills": 4686,
      "pillow": 4687,
      "consult": 4688,
      "rescued": 4689,
      "envy": 4690,
      "environ": 4691,
      "scientist": 4692,
      "scientists": 4693,
      "original": 4694,
      "target": 4695,
      "loyal": 4696,
      "detective": 4697,
      "trousers": 4698,
      "visitors": 4699,
      "freedom": 4700,
      "refresh": 4701,
      "skeptical": 4702,
      "guarant": 4703,
      "length": 4704,
      "reluct": 4705,
      "handkerchief": 4706,
      "ale": 4707,
      "gers": 4708,
      "gather": 4709,
      "ggled": 4710,
      "poker": 4711,
      "sac": 4712,
      "sir": 4713,
      "wra": 4714,
      "xi": 4715,
      "attic": 4716,
      "hen": 4717,
      "astron": 4718,
      "arch": 4719,
      "toma": 4720,
      "bel": 4721,
      "goat": 4722,
      "verted": 4723,
      "washer": 4724,
      "fork": 4725,
      "espe": 4726,
      "outr": 4727,
      "fere": 4728,
      "devoted": 4729,
      "pos": 4730,
      "poet": 4731,
      "aging": 4732,
      "stores": 4733,
      "conce": 4734,
      "comb": 4735,
      "pers": 4736,
      "pregn": 4737,
      "joined": 4738,
      "rights": 4739,
      "otherwise": 4740,
      "typho": 4741,
      "aching": 4742,
      "puts": 4743,
      "ruin": 4744,
      "cies": 4745,
      "nerves": 4746,
      "lace": 4747,
      "minister": 4748,
      "creative": 4749,
      "breaks": 4750,
      "june": 4751,
      "shared": 4752,
      "guessed": 4753,
      "interfere": 4754,
      "expenses": 4755,
      "darker": 4756,
      "landed": 4757,
      "dollar": 4758,
      "grows": 4759,
      "bloom": 4760,
      "rising": 4761,
      "guns": 4762,
      "quietly": 4763,
      "correctly": 4764,
      "blackboard": 4765,
      "risky": 4766,
      "grapes": 4767,
      "fastest": 4768,
      "swam": 4769,
      "dancer": 4770,
      "hundreds": 4771,
      "knocking": 4772,
      "debts": 4773,
      "slam": 4774,
      "mentioned": 4775,
      "millionaire": 4776,
      "customer": 4777,
      "connection": 4778,
      "cheerful": 4779,
      "professor": 4780,
      "necklace": 4781,
      "competent": 4782,
      "postpone": 4783,
      "conclusion": 4784,
      "announced": 4785,
      "confessed": 4786,
      "dragged": 4787,
      "elephants": 4788,
      "receipt": 4789,
      "survivors": 4790,
      "apparently": 4791,
      "absence": 4792,
      "diplomat": 4793,
      "compliment": 4794,
      "prohibited": 4795,
      "awkward": 4796,
      "bluffing": 4797,
      "especially": 4798,
      "300": 4799,
      "cd": 4800,
      "gon": 4801,
      "lting": 4802,
      "ras": 4803,
      "rit": 4804,
      "rushed": 4805,
      "tune": 4806,
      "zes": 4807,
      "tori": 4808,
      "inting": 4809,
      "reve": 4810,
      "recall": 4811,
      "refer": 4812,
      "attempt": 4813,
      "ancial": 4814,
      "hest": 4815,
      "mexi": 4816,
      "lected": 4817,
      "rog": 4818,
      "forty": 4819,
      "forgetting": 4820,
      "absor": 4821,
      "ending": 4822,
      "mars": 4823,
      "demon": 4824,
      "poo": 4825,
      "exchanged": 4826,
      "india": 4827,
      "worker": 4828,
      "ament": 4829,
      "manual": 4830,
      "wolf": 4831,
      "divided": 4832,
      "glanced": 4833,
      "forecast": 4834,
      "stands": 4835,
      "dislike": 4836,
      "brand": 4837,
      "planes": 4838,
      "cheating": 4839,
      "stops": 4840,
      "financial": 4841,
      "differ": 4842,
      "parts": 4843,
      "gray": 4844,
      "crew": 4845,
      "lessons": 4846,
      "trusts": 4847,
      "england": 4848,
      "sunscreen": 4849,
      "closest": 4850,
      "sensible": 4851,
      "classical": 4852,
      "puppy": 4853,
      "strongly": 4854,
      "halfway": 4855,
      "suitable": 4856,
      "subscri": 4857,
      "soldier": 4858,
      "presence": 4859,
      "bathtub": 4860,
      "arrives": 4861,
      "uniform": 4862,
      "servant": 4863,
      "pulling": 4864,
      "grounded": 4865,
      "nicer": 4866,
      "drawing": 4867,
      "hypo": 4868,
      "property": 4869,
      "employ": 4870,
      "highest": 4871,
      "volunteers": 4872,
      "journey": 4873,
      "stream": 4874,
      "slightly": 4875,
      "knees": 4876,
      "rescue": 4877,
      "errors": 4878,
      "banana": 4879,
      "cheek": 4880,
      "contains": 4881,
      "wishes": 4882,
      "rapid": 4883,
      "contribu": 4884,
      "micro": 4885,
      "foreigners": 4886,
      "blanket": 4887,
      "fascinating": 4888,
      "interpreter": 4889,
      "underestimate": 4890,
      "supportive": 4891,
      "motivated": 4892,
      "burglar": 4893,
      "performance": 4894,
      "engagement": 4895,
      "dried": 4896,
      "een": 4897,
      "lid": 4898,
      "pac": 4899,
      "pstick": 4900,
      "thieve": 4901,
      "reput": 4902,
      "stab": 4903,
      "err": 4904,
      "identi": 4905,
      "seve": 4906,
      "alp": 4907,
      "located": 4908,
      "wiped": 4909,
      "richer": 4910,
      "added": 4911,
      "advent": 4912,
      "adults": 4913,
      "cope": 4914,
      "geon": 4915,
      "unnecessary": 4916,
      "accompany": 4917,
      "oked": 4918,
      "ained": 4919,
      "degre": 4920,
      "derer": 4921,
      "pover": 4922,
      "exit": 4923,
      "yelled": 4924,
      "amen": 4925,
      "auto": 4926,
      "thoughts": 4927,
      "gull": 4928,
      "tools": 4929,
      "bookstore": 4930,
      "watches": 4931,
      "players": 4932,
      "overre": 4933,
      "lux": 4934,
      "discouraged": 4935,
      "handwriting": 4936,
      "shows": 4937,
      "showing": 4938,
      "minded": 4939,
      "kidn": 4940,
      "expectations": 4941,
      "owner": 4942,
      "skate": 4943,
      "pressing": 4944,
      "nuclear": 4945,
      "treating": 4946,
      "confirm": 4947,
      "intersection": 4948,
      "efficient": 4949,
      "cups": 4950,
      "grandparents": 4951,
      "blocked": 4952,
      "collection": 4953,
      "cakes": 4954,
      "dedicated": 4955,
      "deserted": 4956,
      "fooled": 4957,
      "consideration": 4958,
      "opponent": 4959,
      "messages": 4960,
      "approve": 4961,
      "entertain": 4962,
      "cellphone": 4963,
      "squir": 4964,
      "murderer": 4965,
      "regis": 4966,
      "register": 4967,
      "conditioner": 4968,
      "reminded": 4969,
      "charac": 4970,
      "universe": 4971,
      "families": 4972,
      "issues": 4973,
      "panic": 4974,
      "cherry": 4975,
      "poems": 4976,
      "crops": 4977,
      "anticip": 4978,
      "benef": 4979,
      "thrown": 4980,
      "install": 4981,
      "sympath": 4982,
      "competition": 4983,
      "criticism": 4984,
      "tracked": 4985,
      "currently": 4986,
      "victim": 4987,
      "switched": 4988,
      "accomplish": 4989,
      "whale": 4990,
      "opposite": 4991,
      "consequences": 4992,
      "circum": 4993,
      "thieves": 4994,
      "degrees": 4995,
      "bs": 4996,
      "gig": 4997,
      "ii": 4998,
      "io": 4999,
      "ko": 5000,
      "kin": 5001,
      "racket": 5002,
      "toe": 5003,
      "indoors": 5004,
      "represent": 5005,
      "atic": 5006,
      "ony": 5007,
      "heli": 5008,
      "hever": 5009,
      "orm": 5010,
      "stiff": 5011,
      "besides": 5012,
      "whic": 5013,
      "chase": 5014,
      "chased": 5015,
      "verify": 5016,
      "donated": 5017,
      "rigu": 5018,
      "adic": 5019,
      "gear": 5020,
      "ceful": 5021,
      "outdoors": 5022,
      "union": 5023,
      "female": 5024,
      "trash": 5025,
      "iring": 5026,
      "shine": 5027,
      "ender": 5028,
      "ama": 5029,
      "posed": 5030,
      "pointed": 5031,
      "ssed": 5032,
      "promo": 5033,
      "ulse": 5034,
      "astro": 5035,
      "comfort": 5036,
      "ational": 5037,
      "spider": 5038,
      "offend": 5039,
      "cared": 5040,
      "print": 5041,
      "standard": 5042,
      "mental": 5043,
      "brushed": 5044,
      "earned": 5045,
      "finds": 5046,
      "tors": 5047,
      "pace": 5048,
      "decent": 5049,
      "blink": 5050,
      "sentences": 5051,
      "thanked": 5052,
      "intrigu": 5053,
      "hiking": 5054,
      "painful": 5055,
      "jewel": 5056,
      "sincere": 5057,
      "safely": 5058,
      "hugged": 5059,
      "ggle": 5060,
      "eyesight": 5061,
      "interview": 5062,
      "dealing": 5063,
      "appreciated": 5064,
      "signs": 5065,
      "gunshots": 5066,
      "riding": 5067,
      "vacu": 5068,
      "desert": 5069,
      "weekends": 5070,
      "valid": 5071,
      "warming": 5072,
      "addressed": 5073,
      "ators": 5074,
      "windy": 5075,
      "197": 5076,
      "judged": 5077,
      "paste": 5078,
      "softw": 5079,
      "harvest": 5080,
      "political": 5081,
      "annoy": 5082,
      "humans": 5083,
      "pretending": 5084,
      "critical": 5085,
      "destroy": 5086,
      "pilot": 5087,
      "daily": 5088,
      "majority": 5089,
      "alcoholic": 5090,
      "insult": 5091,
      "dishwasher": 5092,
      "challeng": 5093,
      "despise": 5094,
      "conclusions": 5095,
      "puzzle": 5096,
      "wealthy": 5097,
      "zero": 5098,
      "religious": 5099,
      "addicted": 5100,
      "application": 5101,
      "points": 5102,
      "laptop": 5103,
      "waved": 5104,
      "gorgeous": 5105,
      "temporary": 5106,
      "shift": 5107,
      "april": 5108,
      "valentine": 5109,
      "loosen": 5110,
      "archite": 5111,
      "pregnant": 5112,
      "squirrel": 5113,
      "circumstances": 5114,
      "whichever": 5115,
      "software": 5116,
      "15": 5117,
      "500": 5118,
      "ax": 5119,
      "brow": 5120,
      "cence": 5121,
      "ets": 5122,
      "gru": 5123,
      "lamp": 5124,
      "mut": 5125,
      "nical": 5126,
      "oly": 5127,
      "ops": 5128,
      "tiny": 5129,
      "thri": 5130,
      "tore": 5131,
      "reaction": 5132,
      "atmo": 5133,
      "anal": 5134,
      "isti": 5135,
      "hea": 5136,
      "heaven": 5137,
      "lly": 5138,
      "enjo": 5139,
      "stit": 5140,
      "stall": 5141,
      "behaving": 5142,
      "lions": 5143,
      "rocks": 5144,
      "forbid": 5145,
      "rio": 5146,
      "essay": 5147,
      "aces": 5148,
      "trade": 5149,
      "irrelevant": 5150,
      "ups": 5151,
      "amused": 5152,
      "sage": 5153,
      "sphere": 5154,
      "precious": 5155,
      "spec": 5156,
      "bodyguard": 5157,
      "buses": 5158,
      "appet": 5159,
      "printer": 5160,
      "stays": 5161,
      "buys": 5162,
      "ciation": 5163,
      "surgeon": 5164,
      "bedtime": 5165,
      "sings": 5166,
      "prime": 5167,
      "tricks": 5168,
      "tests": 5169,
      "alibi": 5170,
      "exams": 5171,
      "examine": 5172,
      "becomes": 5173,
      "disappointing": 5174,
      "blackmail": 5175,
      "flour": 5176,
      "faces": 5177,
      "starved": 5178,
      "approached": 5179,
      "arrange": 5180,
      "welcomed": 5181,
      "copies": 5182,
      "respected": 5183,
      "grade": 5184,
      "production": 5185,
      "steady": 5186,
      "charity": 5187,
      "innocence": 5188,
      "pencils": 5189,
      "slip": 5190,
      "messed": 5191,
      "tasted": 5192,
      "eighteen": 5193,
      "aboard": 5194,
      "panicked": 5195,
      "victory": 5196,
      "recommended": 5197,
      "director": 5198,
      "increased": 5199,
      "grabbed": 5200,
      "celebrating": 5201,
      "prints": 5202,
      "ambition": 5203,
      "sandwiches": 5204,
      "rubbed": 5205,
      "remarks": 5206,
      "defense": 5207,
      "briefly": 5208,
      "decorate": 5209,
      "quarter": 5210,
      "temptation": 5211,
      "techno": 5212,
      "cott": 5213,
      "railroad": 5214,
      "curtains": 5215,
      "strawberries": 5216,
      "practicing": 5217,
      "rotten": 5218,
      "construction": 5219,
      "italized": 5220,
      "british": 5221,
      "flashlight": 5222,
      "slippery": 5223,
      "emotional": 5224,
      "blonde": 5225,
      "democr": 5226,
      "demonstr": 5227,
      "poverty": 5228,
      "helicop": 5229,
      "architect": 5230,
      "enjoys": 5231,
      "appetite": 5232,
      "12": 5233,
      "atom": 5234,
      "dull": 5235,
      "eth": 5236,
      "east": 5237,
      "jar": 5238,
      "kick": 5239,
      "labor": 5240,
      "mare": 5241,
      "pal": 5242,
      "pure": 5243,
      "rant": 5244,
      "sin": 5245,
      "sam": 5246,
      "sword": 5247,
      "saint": 5248,
      "uge": 5249,
      "uine": 5250,
      "thus": 5251,
      "inde": 5252,
      "incorrect": 5253,
      "rese": 5254,
      "recess": 5255,
      "mechan": 5256,
      "assure": 5257,
      "itive": 5258,
      "encouraged": 5259,
      "enthus": 5260,
      "rolled": 5261,
      "forgiven": 5262,
      "los": 5263,
      "loving": 5264,
      "ripped": 5265,
      "richest": 5266,
      "ador": 5267,
      "adjust": 5268,
      "coast": 5269,
      "boil": 5270,
      "shel": 5271,
      "shell": 5272,
      "pets": 5273,
      "pepper": 5274,
      "imit": 5275,
      "akes": 5276,
      "tran": 5277,
      "plus": 5278,
      "mark": 5279,
      "sauce": 5280,
      "stove": 5281,
      "letting": 5282,
      "istent": 5283,
      "reduce": 5284,
      "prom": 5285,
      "process": 5286,
      "justice": 5287,
      "comments": 5288,
      "dyed": 5289,
      "homeless": 5290,
      "igning": 5291,
      "mbled": 5292,
      "manners": 5293,
      "lottery": 5294,
      "nightmare": 5295,
      "prince": 5296,
      "drum": 5297,
      "roommate": 5298,
      "waiter": 5299,
      "trum": 5300,
      "latest": 5301,
      "angel": 5302,
      "blush": 5303,
      "mercy": 5304,
      "pretti": 5305,
      "skip": 5306,
      "metal": 5307,
      "shaking": 5308,
      "shaken": 5309,
      "freezing": 5310,
      "humid": 5311,
      "differently": 5312,
      "genuine": 5313,
      "recipe": 5314,
      "experts": 5315,
      "refuge": 5316,
      "realistic": 5317,
      "hospitalized": 5318,
      "hearted": 5319,
      "hitting": 5320,
      "client": 5321,
      "mix": 5322,
      "considering": 5323,
      "lawyers": 5324,
      "owes": 5325,
      "struggled": 5326,
      "destination": 5327,
      "avoided": 5328,
      "productive": 5329,
      "carrying": 5330,
      "bribe": 5331,
      "demands": 5332,
      "personality": 5333,
      "stones": 5334,
      "amazed": 5335,
      "guards": 5336,
      "20th": 5337,
      "exerc": 5338,
      "contradic": 5339,
      "toothpaste": 5340,
      "predict": 5341,
      "psycho": 5342,
      "symbo": 5343,
      "negotiations": 5344,
      "convenience": 5345,
      "deceived": 5346,
      "objection": 5347,
      "customs": 5348,
      "puzzled": 5349,
      "separated": 5350,
      "declined": 5351,
      "material": 5352,
      "vitam": 5353,
      "pounds": 5354,
      "literature": 5355,
      "priority": 5356,
      "remarkable": 5357,
      "politician": 5358,
      "sailor": 5359,
      "journalist": 5360,
      "cooperate": 5361,
      "mosquito": 5362,
      "leaned": 5363,
      "frustrated": 5364,
      "osaka": 5365,
      "limited": 5366,
      "branch": 5367,
      "humiliated": 5368,
      "cockro": 5369,
      "tolerate": 5370,
      "symptoms": 5371,
      "sacri": 5372,
      "typhoon": 5373,
      "alpha": 5374,
      "gullible": 5375,
      "overreacting": 5376,
      "promoted": 5377,
      "olymp": 5378,
      "atmosphere": 5379,
      "enthusi": 5380,
      "200": 5381,
      "45": 5382,
      "blast": 5383,
      "bars": 5384,
      "dated": 5385,
      "faint": 5386,
      "pended": 5387,
      "pier": 5388,
      "rational": 5389,
      "tid": 5390,
      "tun": 5391,
      "tank": 5392,
      "wink": 5393,
      "ya": 5394,
      "zi": 5395,
      "thumb": 5396,
      "incompetent": 5397,
      "renew": 5398,
      "reserved": 5399,
      "attri": 5400,
      "aspir": 5401,
      "leather": 5402,
      "dol": 5403,
      "hallo": 5404,
      "rome": 5405,
      "role": 5406,
      "nesses": 5407,
      "ric": 5408,
      "cane": 5409,
      "soap": 5410,
      "unlocked": 5411,
      "abol": 5412,
      "actions": 5413,
      "bold": 5414,
      "bothered": 5415,
      "fewer": 5416,
      "sue": 5417,
      "tract": 5418,
      "someplace": 5419,
      "worries": 5420,
      "pler": 5421,
      "agious": 5422,
      "agging": 5423,
      "exe": 5424,
      "proced": 5425,
      "fries": 5426,
      "previous": 5427,
      "prescri": 5428,
      "jogging": 5429,
      "carbon": 5430,
      "backwards": 5431,
      "pru": 5432,
      "clothing": 5433,
      "disaster": 5434,
      "afterwards": 5435,
      "mashed": 5436,
      "phy": 5437,
      "hurting": 5438,
      "accusing": 5439,
      "ficial": 5440,
      "minim": 5441,
      "colds": 5442,
      "causes": 5443,
      "contagious": 5444,
      "hunger": 5445,
      "sunset": 5446,
      "killing": 5447,
      "tricked": 5448,
      "balls": 5449,
      "snowed": 5450,
      "vention": 5451,
      "spoiled": 5452,
      "berg": 5453,
      "shortly": 5454,
      "suggesting": 5455,
      "mile": 5456,
      "bankrupt": 5457,
      "honestly": 5458,
      "grap": 5459,
      "fatter": 5460,
      "throwing": 5461,
      "packing": 5462,
      "respectful": 5463,
      "memorize": 5464,
      "judging": 5465,
      "absolute": 5466,
      "suspected": 5467,
      "rats": 5468,
      "slave": 5469,
      "websites": 5470,
      "european": 5471,
      "frighten": 5472,
      "flex": 5473,
      "scarf": 5474,
      "repeated": 5475,
      "requires": 5476,
      "increasing": 5477,
      "cousins": 5478,
      "princi": 5479,
      "princess": 5480,
      "carelessness": 5481,
      "queen": 5482,
      "decorated": 5483,
      "insects": 5484,
      "rabbits": 5485,
      "ignorant": 5486,
      "regularly": 5487,
      "flir": 5488,
      "whispered": 5489,
      "skills": 5490,
      "foreigner": 5491,
      "plumber": 5492,
      "whistling": 5493,
      "oblig": 5494,
      "insisted": 5495,
      "relatives": 5496,
      "influence": 5497,
      "alley": 5498,
      "participate": 5499,
      "astonished": 5500,
      "spilled": 5501,
      "tomatoes": 5502,
      "reputation": 5503,
      "luxury": 5504,
      "heavi": 5505,
      "technology": 5506,
      "cottage": 5507,
      "helicopter": 5508,
      "trumpet": 5509,
      "halloween": 5510,
      "bing": 5511,
      "cath": 5512,
      "dd": 5513,
      "iver": 5514,
      "lung": 5515,
      "mass": 5516,
      "oy": 5517,
      "olic": 5518,
      "pant": 5519,
      "pour": 5520,
      "sake": 5521,
      "slower": 5522,
      "tap": 5523,
      "ues": 5524,
      "independent": 5525,
      "reconsider": 5526,
      "replaced": 5527,
      "ats": 5528,
      "onto": 5529,
      "heater": 5530,
      "mester": 5531,
      "melon": 5532,
      "inguish": 5533,
      "lli": 5534,
      "erly": 5535,
      "arrog": 5536,
      "haun": 5537,
      "bees": 5538,
      "sec": 5539,
      "sex": 5540,
      "semester": 5541,
      "lifted": 5542,
      "roast": 5543,
      "alert": 5544,
      "holes": 5545,
      "wipe": 5546,
      "rifle": 5547,
      "admission": 5548,
      "unfortunate": 5549,
      "sheet": 5550,
      "tern": 5551,
      "irrit": 5552,
      "shr": 5553,
      "shu": 5554,
      "marks": 5555,
      "urged": 5556,
      "dee": 5557,
      "yeah": 5558,
      "redu": 5559,
      "peri": 5560,
      "inevit": 5561,
      "backed": 5562,
      "essential": 5563,
      "disappear": 5564,
      "partner": 5565,
      "surface": 5566,
      "minds": 5567,
      "thankful": 5568,
      "pical": 5569,
      "pays": 5570,
      "flows": 5571,
      "forgetful": 5572,
      "voices": 5573,
      "sunny": 5574,
      "sunrise": 5575,
      "muscle": 5576,
      "steel": 5577,
      "treas": 5578,
      "snowman": 5579,
      "warrant": 5580,
      "excused": 5581,
      "confuse": 5582,
      "consists": 5583,
      "international": 5584,
      "scares": 5585,
      "pickpockets": 5586,
      "situations": 5587,
      "falls": 5588,
      "checking": 5589,
      "cliff": 5590,
      "blown": 5591,
      "travels": 5592,
      "ridden": 5593,
      "response": 5594,
      "suspended": 5595,
      "sixty": 5596,
      "distinguish": 5597,
      "flame": 5598,
      "barber": 5599,
      "satisfactory": 5600,
      "volcano": 5601,
      "regrets": 5602,
      "photograp": 5603,
      "arranged": 5604,
      "wooden": 5605,
      "entering": 5606,
      "squee": 5607,
      "chain": 5608,
      "gradually": 5609,
      "bottles": 5610,
      "society": 5611,
      "basic": 5612,
      "ladies": 5613,
      "politely": 5614,
      "furious": 5615,
      "habits": 5616,
      "determine": 5617,
      "interrupting": 5618,
      "tourist": 5619,
      "earthquakes": 5620,
      "predicted": 5621,
      "spotted": 5622,
      "psychic": 5623,
      "behaved": 5624,
      "improvement": 5625,
      "consciousness": 5626,
      "improving": 5627,
      "stressed": 5628,
      "measure": 5629,
      "blowing": 5630,
      "ignorance": 5631,
      "approaching": 5632,
      "sneak": 5633,
      "materials": 5634,
      "affairs": 5635,
      "economic": 5636,
      "crawling": 5637,
      "oxy": 5638,
      "knitting": 5639,
      "nodded": 5640,
      "collapsed": 5641,
      "conduct": 5642,
      "gonna": 5643,
      "rapidly": 5644,
      "character": 5645,
      "dolph": 5646,
      "heavier": 5647,
      "catholic": 5648,
      "inevitable": 5649,
      "14": 5650,
      "17": 5651,
      "alice": 5652,
      "bak": 5653,
      "bible": 5654,
      "banged": 5655,
      "cort": 5656,
      "cage": 5657,
      "dye": 5658,
      "emo": 5659,
      "fab": 5660,
      "gy": 5661,
      "link": 5662,
      "mr": 5663,
      "mask": 5664,
      "ping": 5665,
      "plot": 5666,
      "pages": 5667,
      "pork": 5668,
      "pulse": 5669,
      "sank": 5670,
      "tin": 5671,
      "ufo": 5672,
      "whel": 5673,
      "wol": 5674,
      "wings": 5675,
      "thy": 5676,
      "thma": 5677,
      "tone": 5678,
      "inct": 5679,
      "infl": 5680,
      "refund": 5681,
      "onym": 5682,
      "heated": 5683,
      "asthma": 5684,
      "itary": 5685,
      "enger": 5686,
      "envious": 5687,
      "stir": 5688,
      "lef": 5689,
      "hay": 5690,
      "hamb": 5691,
      "weeds": 5692,
      "sew": 5693,
      "sets": 5694,
      "selected": 5695,
      "goss": 5696,
      "chip": 5697,
      "verb": 5698,
      "forgave": 5699,
      "nesday": 5700,
      "tial": 5701,
      "escort": 5702,
      "coin": 5703,
      "unciation": 5704,
      "boo": 5705,
      "bowed": 5706,
      "boiling": 5707,
      "modest": 5708,
      "fet": 5709,
      "pest": 5710,
      "term": 5711,
      "terror": 5712,
      "iful": 5713,
      "shark": 5714,
      "utter": 5715,
      "aming": 5716,
      "amusing": 5717,
      "delive": 5718,
      "delic": 5719,
      "safer": 5720,
      "lets": 5721,
      "proved": 5722,
      "ulsive": 5723,
      "composition": 5724,
      "rences": 5725,
      "perman": 5726,
      "els": 5727,
      "spicy": 5728,
      "precise": 5729,
      "carol": 5730,
      "ighed": 5731,
      "bumped": 5732,
      "mbling": 5733,
      "wow": 5734,
      "applies": 5735,
      "files": 5736,
      "speakers": 5737,
      "penny": 5738,
      "icky": 5739,
      "overwhel": 5740,
      "lump": 5741,
      "disco": 5742,
      "dismissed": 5743,
      "schools": 5744,
      "shooting": 5745,
      "greed": 5746,
      "civi": 5747,
      "caution": 5748,
      "phr": 5749,
      "pharm": 5750,
      "blaming": 5751,
      "begged": 5752,
      "clung": 5753,
      "fasten": 5754,
      "painter": 5755,
      "priest": 5756,
      "swimmer": 5757,
      "listens": 5758,
      "dining": 5759,
      "latin": 5760,
      "numb": 5761,
      "mush": 5762,
      "follows": 5763,
      "causing": 5764,
      "attached": 5765,
      "cutting": 5766,
      "vivid": 5767,
      "refrain": 5768,
      "tons": 5769,
      "necessarily": 5770,
      "collected": 5771,
      "touching": 5772,
      "smokes": 5773,
      "distri": 5774,
      "wednesday": 5775,
      "cycl": 5776,
      "teenagers": 5777,
      "resume": 5778,
      "swallow": 5779,
      "injuries": 5780,
      "bury": 5781,
      "argued": 5782,
      "unique": 5783,
      "swept": 5784,
      "garlic": 5785,
      "magn": 5786,
      "memories": 5787,
      "brace": 5788,
      "kyoto": 5789,
      "brilli": 5790,
      "opera": 5791,
      "deliber": 5792,
      "treats": 5793,
      "avoiding": 5794,
      "hardest": 5795,
      "solar": 5796,
      "longest": 5797,
      "addition": 5798,
      "interrupted": 5799,
      "stung": 5800,
      "pronunciation": 5801,
      "statement": 5802,
      "insecure": 5803,
      "objected": 5804,
      "stressful": 5805,
      "stylish": 5806,
      "cotton": 5807,
      "troops": 5808,
      "creepy": 5809,
      "religion": 5810,
      "digging": 5811,
      "affected": 5812,
      "shouting": 5813,
      "statue": 5814,
      "politicians": 5815,
      "resources": 5816,
      "resourceful": 5817,
      "chicago": 5818,
      "various": 5819,
      "robbery": 5820,
      "punishment": 5821,
      "spanish": 5822,
      "scratch": 5823,
      "claims": 5824,
      "stroke": 5825,
      "troubled": 5826,
      "guarantee": 5827,
      "reluctant": 5828,
      "outraged": 5829,
      "subscribe": 5830,
      "errand": 5831,
      "kidnapped": 5832,
      "registered": 5833,
      "specific": 5834,
      "flexible": 5835,
      "haunted": 5836,
      "treasure": 5837,
      "wolves": 5838,
      "hambur": 5839,
      "gossip": 5840,
      "delivered": 5841,
      "permanent": 5842,
      "civili": 5843,
      "brilliant": 5844,
      "40": 5845,
      "blog": 5846,
      "bones": 5847,
      "cam": 5848,
      "dge": 5849,
      "dates": 5850,
      "hic": 5851,
      "hint": 5852,
      "hilar": 5853,
      "lined": 5854,
      "mig": 5855,
      "mild": 5856,
      "nut": 5857,
      "nau": 5858,
      "og": 5859,
      "pip": 5860,
      "san": 5861,
      "sar": 5862,
      "sch": 5863,
      "sla": 5864,
      "vague": 5865,
      "thur": 5866,
      "injury": 5867,
      "reward": 5868,
      "youth": 5869,
      "atten": 5870,
      "ano": 5871,
      "anonym": 5872,
      "het": 5873,
      "melted": 5874,
      "stadi": 5875,
      "ara": 5876,
      "lete": 5877,
      "beware": 5878,
      "ids": 5879,
      "idential": 5880,
      "limp": 5881,
      "chi": 5882,
      "chim": 5883,
      "root": 5884,
      "tiring": 5885,
      "sock": 5886,
      "adapt": 5887,
      "cel": 5888,
      "tear": 5889,
      "unknown": 5890,
      "absur": 5891,
      "sheets": 5892,
      "pean": 5893,
      "pear": 5894,
      "imated": 5895,
      "irs": 5896,
      "somehow": 5897,
      "worm": 5898,
      "plug": 5899,
      "marath": 5900,
      "ammun": 5901,
      "deals": 5902,
      "poten": 5903,
      "needing": 5904,
      "agne": 5905,
      "exting": 5906,
      "exhibit": 5907,
      "pros": 5908,
      "fol": 5909,
      "ulti": 5910,
      "conserv": 5911,
      "rage": 5912,
      "prefers": 5913,
      "mug": 5914,
      "inet": 5915,
      "choir": 5916,
      "items": 5917,
      "dia": 5918,
      "career": 5919,
      "mustache": 5920,
      "overheard": 5921,
      "overseas": 5922,
      "broad": 5923,
      "shops": 5924,
      "shovel": 5925,
      "startled": 5926,
      "intoler": 5927,
      "phones": 5928,
      "monkey": 5929,
      "monkeys": 5930,
      "christi": 5931,
      "surf": 5932,
      "blank": 5933,
      "izing": 5934,
      "remembers": 5935,
      "remembering": 5936,
      "colder": 5937,
      "clar": 5938,
      "payment": 5939,
      "desire": 5940,
      "ails": 5941,
      "greatly": 5942,
      "smoked": 5943,
      "shallow": 5944,
      "farmers": 5945,
      "scam": 5946,
      "driven": 5947,
      "passing": 5948,
      "trig": 5949,
      "tripped": 5950,
      "explaining": 5951,
      "council": 5952,
      "roads": 5953,
      "brings": 5954,
      "holds": 5955,
      "fixing": 5956,
      "laughs": 5957,
      "recovery": 5958,
      "risked": 5959,
      "patients": 5960,
      "convic": 5961,
      "occup": 5962,
      "reported": 5963,
      "cumber": 5964,
      "curio": 5965,
      "coln": 5966,
      "faced": 5967,
      "teens": 5968,
      "sending": 5969,
      "pianist": 5970,
      "coughed": 5971,
      "opposed": 5972,
      "warmth": 5973,
      "uneasy": 5974,
      "purchase": 5975,
      "relief": 5976,
      "pairs": 5977,
      "burnt": 5978,
      "destiny": 5979,
      "gently": 5980,
      "postcard": 5981,
      "canada": 5982,
      "deliver": 5983,
      "propose": 5984,
      "batter": 5985,
      "organization": 5986,
      "sufficient": 5987,
      "grammar": 5988,
      "threatening": 5989,
      "sharpen": 5990,
      "directions": 5991,
      "turkey": 5992,
      "traitor": 5993,
      "advantages": 5994,
      "toothache": 5995,
      "elderly": 5996,
      "resigned": 5997,
      "score": 5998,
      "investigating": 5999,
      "tends": 6000,
      "requested": 6001,
      "dumbfounded": 6002,
      "briefcase": 6003,
      "strictly": 6004,
      "lacks": 6005,
      "volution": 6006,
      "lincoln": 6007,
      "kilometers": 6008,
      "devast": 6009,
      "devil": 6010,
      "alternatives": 6011,
      "sinking": 6012,
      "announce": 6013,
      "declared": 6014,
      "addict": 6015,
      "snee": 6016,
      "victims": 6017,
      "fuss": 6018,
      "disturbing": 6019,
      "champagne": 6020,
      "snore": 6021,
      "mexico": 6022,
      "stabbed": 6023,
      "amends": 6024,
      "giggled": 6025,
      "standards": 6026,
      "shelter": 6027,
      "prettier": 6028,
      "refugees": 6029,
      "procedure": 6030,
      "oysters": 6031,
      "arrogant": 6032,
      "period": 6033,
      "oxygen": 6034,
      "emotions": 6035,
      "inflation": 6036,
      "lefto": 6037,
      "hilarious": 6038,
      "attentive": 6039,
      "anonymous": 6040,
      "stadium": 6041,
      "absurd": 6042,
      "ammunition": 6043,
      "conservative": 6044,
      "curiosity": 6045,
      "11": 6046,
      "bene": 6047,
      "ckey": 6048,
      "ciful": 6049,
      "gang": 6050,
      "hiring": 6051,
      "lame": 6052,
      "obed": 6053,
      "pink": 6054,
      "pess": 6055,
      "ray": 6056,
      "rout": 6057,
      "rash": 6058,
      "sip": 6059,
      "ution": 6060,
      "vul": 6061,
      "vable": 6062,
      "zil": 6063,
      "zation": 6064,
      "oudy": 6065,
      "tories": 6066,
      "inher": 6067,
      "intimid": 6068,
      "reserve": 6069,
      "attor": 6070,
      "iss": 6071,
      "isol": 6072,
      "oning": 6073,
      "onions": 6074,
      "vey": 6075,
      "heating": 6076,
      "mere": 6077,
      "asia": 6078,
      "llen": 6079,
      "orient": 6080,
      "stake": 6081,
      "dove": 6082,
      "hack": 6083,
      "bears": 6084,
      "sewing": 6085,
      "liqu": 6086,
      "lowered": 6087,
      "wives": 6088,
      "tick": 6089,
      "coal": 6090,
      "cooperation": 6091,
      "teased": 6092,
      "bore": 6093,
      "teria": 6094,
      "irresponsible": 6095,
      "iffe": 6096,
      "plates": 6097,
      "deposit": 6098,
      "export": 6099,
      "happiest": 6100,
      "yell": 6101,
      "promotion": 6102,
      "ively": 6103,
      "frost": 6104,
      "faults": 6105,
      "tens": 6106,
      "wrist": 6107,
      "angle": 6108,
      "misjudged": 6109,
      "gling": 6110,
      "forehead": 6111,
      "tles": 6112,
      "ickering": 6113,
      "asser": 6114,
      "closing": 6115,
      "overslept": 6116,
      "disgu": 6117,
      "discover": 6118,
      "childish": 6119,
      "cheat": 6120,
      "wins": 6121,
      "surfing": 6122,
      "minis": 6123,
      "serves": 6124,
      "create": 6125,
      "listed": 6126,
      "izon": 6127,
      "mption": 6128,
      "lighter": 6129,
      "merciful": 6130,
      "cloudy": 6131,
      "babies": 6132,
      "swims": 6133,
      "gladly": 6134,
      "surprises": 6135,
      "imports": 6136,
      "skating": 6137,
      "policemen": 6138,
      "sung": 6139,
      "agreeing": 6140,
      "sia": 6141,
      "sili": 6142,
      "salmon": 6143,
      "horror": 6144,
      "suming": 6145,
      "confusing": 6146,
      "completed": 6147,
      "countless": 6148,
      "quitting": 6149,
      "thesis": 6150,
      "shortage": 6151,
      "babysit": 6152,
      "military": 6153,
      "discussing": 6154,
      "maintain": 6155,
      "experiences": 6156,
      "transfer": 6157,
      "fooling": 6158,
      "cured": 6159,
      "cuff": 6160,
      "considerate": 6161,
      "reception": 6162,
      "counts": 6163,
      "approval": 6164,
      "grav": 6165,
      "temple": 6166,
      "immediate": 6167,
      "protection": 6168,
      "controlled": 6169,
      "extent": 6170,
      "cellar": 6171,
      "guitarist": 6172,
      "beaten": 6173,
      "196": 6174,
      "practical": 6175,
      "basis": 6176,
      "delivery": 6177,
      "leads": 6178,
      "seventeen": 6179,
      "fearless": 6180,
      "scheduled": 6181,
      "grams": 6182,
      "hostages": 6183,
      "accountant": 6184,
      "engineer": 6185,
      "cabin": 6186,
      "butterflies": 6187,
      "release": 6188,
      "connect": 6189,
      "heroin": 6190,
      "records": 6191,
      "responsibilities": 6192,
      "textbooks": 6193,
      "predictable": 6194,
      "acquaint": 6195,
      "negotiate": 6196,
      "constant": 6197,
      "community": 6198,
      "allergies": 6199,
      "despite": 6200,
      "savings": 6201,
      "measures": 6202,
      "knives": 6203,
      "chubby": 6204,
      "zerland": 6205,
      "limits": 6206,
      "regards": 6207,
      "whistle": 6208,
      "fussy": 6209,
      "switzerland": 6210,
      "congratulations": 6211,
      "include": 6212,
      "citizens": 6213,
      "mosquitoes": 6214,
      "champion": 6215,
      "pigs": 6216,
      "pollution": 6217,
      "rugby": 6218,
      "virus": 6219,
      "environment": 6220,
      "possess": 6221,
      "pacific": 6222,
      "sympathy": 6223,
      "thrilled": 6224,
      "mechanic": 6225,
      "symbol": 6226,
      "tidy": 6227,
      "fabulous": 6228,
      "delicate": 6229,
      "phrase": 6230,
      "sarcas": 6231,
      "slavery": 6232,
      "chimney": 6233,
      "marathon": 6234,
      "trigger": 6235,
      "pessim": 6236,
      "70": 6237,
      "80": 6238,
      "atory": 6239,
      "bun": 6240,
      "bent": 6241,
      "bart": 6242,
      "evacu": 6243,
      "fty": 6244,
      "ially": 6245,
      "ium": 6246,
      "jan": 6247,
      "lor": 6248,
      "mort": 6249,
      "nations": 6250,
      "ove": 6251,
      "praise": 6252,
      "swell": 6253,
      "scand": 6254,
      "uary": 6255,
      "wan": 6256,
      "xim": 6257,
      "insp": 6258,
      "resili": 6259,
      "theft": 6260,
      "heal": 6261,
      "ingred": 6262,
      "ases": 6263,
      "edition": 6264,
      "iter": 6265,
      "ites": 6266,
      "orph": 6267,
      "ens": 6268,
      "stare": 6269,
      "iding": 6270,
      "seeds": 6271,
      "kered": 6272,
      "hockey": 6273,
      "forces": 6274,
      "loses": 6275,
      "neu": 6276,
      "candid": 6277,
      "ades": 6278,
      "costu": 6279,
      "colu": 6280,
      "geo": 6281,
      "outfit": 6282,
      "suck": 6283,
      "image": 6284,
      "trout": 6285,
      "somewhat": 6286,
      "shiver": 6287,
      "depressing": 6288,
      "needle": 6289,
      "aghet": 6290,
      "helmet": 6291,
      "wheat": 6292,
      "bless": 6293,
      "ideal": 6294,
      "spaghet": 6295,
      "tool": 6296,
      "carries": 6297,
      "eater": 6298,
      "bull": 6299,
      "chores": 6300,
      "assy": 6301,
      "overdo": 6302,
      "diseas": 6303,
      "discree": 6304,
      "handbag": 6305,
      "sits": 6306,
      "hopefully": 6307,
      "visits": 6308,
      "laz": 6309,
      "funds": 6310,
      "created": 6311,
      "bites": 6312,
      "hunter": 6313,
      "owned": 6314,
      "trustworthy": 6315,
      "differences": 6316,
      "cooks": 6317,
      "sham": 6318,
      "killer": 6319,
      "sca": 6320,
      "sincerely": 6321,
      "fireplace": 6322,
      "tape": 6323,
      "venge": 6324,
      "spoil": 6325,
      "pud": 6326,
      "picky": 6327,
      "heartbroken": 6328,
      "complains": 6329,
      "dealt": 6330,
      "crimes": 6331,
      "landing": 6332,
      "click": 6333,
      "blocks": 6334,
      "suggestions": 6335,
      "restaurants": 6336,
      "chairman": 6337,
      "entious": 6338,
      "regretted": 6339,
      "sque": 6340,
      "embassy": 6341,
      "atures": 6342,
      "199": 6343,
      "judg": 6344,
      "possibilities": 6345,
      "profit": 6346,
      "wisely": 6347,
      "version": 6348,
      "opportunities": 6349,
      "golden": 6350,
      "explode": 6351,
      "slapped": 6352,
      "tempting": 6353,
      "attracted": 6354,
      "chickens": 6355,
      "greek": 6356,
      "scarce": 6357,
      "described": 6358,
      "description": 6359,
      "courageous": 6360,
      "turtles": 6361,
      "horrified": 6362,
      "flattered": 6363,
      "hesitated": 6364,
      "textbook": 6365,
      "intelligence": 6366,
      "acquired": 6367,
      "filthy": 6368,
      "fashioned": 6369,
      "december": 6370,
      "disgusted": 6371,
      "congress": 6372,
      "quarrel": 6373,
      "wisdom": 6374,
      "kilograms": 6375,
      "device": 6376,
      "physical": 6377,
      "physics": 6378,
      "balance": 6379,
      "spirits": 6380,
      "stained": 6381,
      "fields": 6382,
      "heights": 6383,
      "coughing": 6384,
      "blankets": 6385,
      "affects": 6386,
      "elephant": 6387,
      "accomplished": 6388,
      "relatively": 6389,
      "compete": 6390,
      "effects": 6391,
      "automob": 6392,
      "spinach": 6393,
      "stretched": 6394,
      "communication": 6395,
      "global": 6396,
      "applauded": 6397,
      "surrendered": 6398,
      "conscientious": 6399,
      "stinks": 6400,
      "wrapped": 6401,
      "astronomy": 6402,
      "persistent": 6403,
      "slammed": 6404,
      "absorbed": 6405,
      "amental": 6406,
      "identify": 6407,
      "intrigued": 6408,
      "atomic": 6409,
      "sample": 6410,
      "indeed": 6411,
      "resemble": 6412,
      "adorable": 6413,
      "sacrific": 6414,
      "alphabet": 6415,
      "aspirin": 6416,
      "photographer": 6417,
      "discovery": 6418,
      "greedy": 6419,
      "bracelet": 6420,
      "thursday": 6421,
      "peanuts": 6422,
      "potential": 6423,
      "batteries": 6424,
      "devastated": 6425,
      "isolated": 6426,
      "pessimistic": 6427,
      "bartender": 6428,
      "resilient": 6429,
      "ingredient": 6430,
      "costume": 6431,
      "spaghetti": 6432,
      "diseases": 6433,
      "discreet": 6434,
      "broom": 6435,
      "barn": 6436,
      "cds": 6437,
      "eiffe": 6438,
      "fare": 6439,
      "fry": 6440,
      "fbi": 6441,
      "gay": 6442,
      "gall": 6443,
      "guts": 6444,
      "kite": 6445,
      "nick": 6446,
      "pad": 6447,
      "ruled": 6448,
      "swo": 6449,
      "smashed": 6450,
      "tag": 6451,
      "vil": 6452,
      "vine": 6453,
      "vacc": 6454,
      "woken": 6455,
      "zard": 6456,
      "zart": 6457,
      "thless": 6458,
      "init": 6459,
      "inappropriate": 6460,
      "react": 6461,
      "resolved": 6462,
      "revolution": 6463,
      "atl": 6464,
      "attered": 6465,
      "anc": 6466,
      "anni": 6467,
      "itated": 6468,
      "enna": 6469,
      "encourage": 6470,
      "sta": 6471,
      "sti": 6472,
      "stack": 6473,
      "leap": 6474,
      "nosy": 6475,
      "haul": 6476,
      "sealed": 6477,
      "rode": 6478,
      "alty": 6479,
      "alarmed": 6480,
      "hog": 6481,
      "loop": 6482,
      "sober": 6483,
      "teasing": 6484,
      "acquit": 6485,
      "acknowled": 6486,
      "mozart": 6487,
      "festi": 6488,
      "tration": 6489,
      "irmed": 6490,
      "entit": 6491,
      "shining": 6492,
      "upside": 6493,
      "urally": 6494,
      "deer": 6495,
      "depri": 6496,
      "degree": 6497,
      "expe": 6498,
      "expressed": 6499,
      "proverb": 6500,
      "ulate": 6501,
      "compar": 6502,
      "perfu": 6503,
      "elbow": 6504,
      "events": 6505,
      "talkative": 6506,
      "spelled": 6507,
      "carpen": 6508,
      "homesick": 6509,
      "butcher": 6510,
      "selfie": 6511,
      "nights": 6512,
      "glance": 6513,
      "penalty": 6514,
      "tless": 6515,
      "waitress": 6516,
      "estate": 6517,
      "overworked": 6518,
      "ield": 6519,
      "ruthless": 6520,
      "civil": 6521,
      "questioning": 6522,
      "partly": 6523,
      "partners": 6524,
      "philo": 6525,
      "kindly": 6526,
      "lifetime": 6527,
      "lighten": 6528,
      "lightly": 6529,
      "interests": 6530,
      "runner": 6531,
      "designed": 6532,
      "jet": 6533,
      "smoker": 6534,
      "frag": 6535,
      "ankle": 6536,
      "sunlight": 6537,
      "steam": 6538,
      "ggles": 6539,
      "crush": 6540,
      "crushed": 6541,
      "tale": 6542,
      "obsess": 6543,
      "dropping": 6544,
      "resort": 6545,
      "attach": 6546,
      "appointed": 6547,
      "horizon": 6548,
      "tested": 6549,
      "pump": 6550,
      "refle": 6551,
      "reality": 6552,
      "businessman": 6553,
      "dict": 6554,
      "hospitality": 6555,
      "fairy": 6556,
      "calmed": 6557,
      "dolls": 6558,
      "checks": 6559,
      "responded": 6560,
      "vacant": 6561,
      "mixed": 6562,
      "smelled": 6563,
      "flunk": 6564,
      "silk": 6565,
      "nia": 6566,
      "offering": 6567,
      "gifted": 6568,
      "approxim": 6569,
      "snap": 6570,
      "chap": 6571,
      "tube": 6572,
      "sweep": 6573,
      "sweating": 6574,
      "powerless": 6575,
      "brazil": 6576,
      "relaxing": 6577,
      "produce": 6578,
      "region": 6579,
      "leading": 6580,
      "superior": 6581,
      "avoidable": 6582,
      "sweets": 6583,
      "fuel": 6584,
      "privately": 6585,
      "fifth": 6586,
      "investment": 6587,
      "escaping": 6588,
      "ninety": 6589,
      "naturally": 6590,
      "hyp": 6591,
      "ificent": 6592,
      "repeating": 6593,
      "examples": 6594,
      "instrument": 6595,
      "groups": 6596,
      "achievement": 6597,
      "intentionally": 6598,
      "rubber": 6599,
      "potato": 6600,
      "cracked": 6601,
      "aneous": 6602,
      "sympathetic": 6603,
      "bulb": 6604,
      "thinner": 6605,
      "graphy": 6606,
      "contented": 6607,
      "shaved": 6608,
      "cheeks": 6609,
      "gamble": 6610,
      "defeat": 6611,
      "contribut": 6612,
      "salesman": 6613,
      "flooded": 6614,
      "practically": 6615,
      "congratulated": 6616,
      "included": 6617,
      "barks": 6618,
      "developed": 6619,
      "recovering": 6620,
      "communicate": 6621,
      "exaggerate": 6622,
      "occasionally": 6623,
      "surrender": 6624,
      "conscience": 6625,
      "russia": 6626,
      "imaginative": 6627,
      "contribute": 6628,
      "severe": 6629,
      "jewelry": 6630,
      "stalling": 6631,
      "forbidden": 6632,
      "democracy": 6633,
      "transport": 6634,
      "vitamins": 6635,
      "cockroaches": 6636,
      "attributed": 6637,
      "minimum": 6638,
      "principles": 6639,
      "flirting": 6640,
      "reduced": 6641,
      "flames": 6642,
      "sneaky": 6643,
      "bakery": 6644,
      "magnificent": 6645,
      "pipes": 6646,
      "obedient": 6647,
      "attorney": 6648,
      "acquaintance": 6649,
      "scandal": 6650,
      "shampoo": 6651,
      "eiffel": 6652,
      "acquitted": 6653,
      "deprived": 6654,
      "perfume": 6655,
      "approximately": 6656,
      "25": 6657,
      "awoke": 6658,
      "baff": 6659,
      "cate": 6660,
      "dim": 6661,
      "eper": 6662,
      "eving": 6663,
      "fountain": 6664,
      "flights": 6665,
      "filed": 6666,
      "gust": 6667,
      "han": 6668,
      "lac": 6669,
      "mam": 6670,
      "msy": 6671,
      "nit": 6672,
      "obe": 6673,
      "pte": 6674,
      "pand": 6675,
      "sian": 6676,
      "sized": 6677,
      "taneous": 6678,
      "va": 6679,
      "wrap": 6680,
      "ounts": 6681,
      "tossed": 6682,
      "inci": 6683,
      "rever": 6684,
      "revol": 6685,
      "revenge": 6686,
      "aser": 6687,
      "ashes": 6688,
      "stable": 6689,
      "archa": 6690,
      "dope": 6691,
      "weighed": 6692,
      "beers": 6693,
      "belts": 6694,
      "seed": 6695,
      "seous": 6696,
      "septe": 6697,
      "lifor": 6698,
      "lict": 6699,
      "ching": 6700,
      "verge": 6701,
      "ros": 6702,
      "roman": 6703,
      "tiles": 6704,
      "tigers": 6705,
      "ricane": 6706,
      "adminis": 6707,
      "cet": 6708,
      "cease": 6709,
      "outcome": 6710,
      "outlive": 6711,
      "lyric": 6712,
      "unmarried": 6713,
      "unbear": 6714,
      "unreliable": 6715,
      "unpleasant": 6716,
      "usion": 6717,
      "acha": 6718,
      "acity": 6719,
      "boiled": 6720,
      "shelves": 6721,
      "pee": 6722,
      "peas": 6723,
      "impolite": 6724,
      "traged": 6725,
      "shattered": 6726,
      "urs": 6727,
      "urge": 6728,
      "poe": 6729,
      "pois": 6730,
      "pole": 6731,
      "ategy": 6732,
      "indic": 6733,
      "prophe": 6734,
      "conspir": 6735,
      "asted": 6736,
      "renched": 6737,
      "raising": 6738,
      "preju": 6739,
      "preaching": 6740,
      "guilt": 6741,
      "oline": 6742,
      "tension": 6743,
      "hometown": 6744,
      "backyard": 6745,
      "chopstick": 6746,
      "manip": 6747,
      "item": 6748,
      "digest": 6749,
      "fulfill": 6750,
      "typical": 6751,
      "waist": 6752,
      "callous": 6753,
      "belief": 6754,
      "overcome": 6755,
      "dispo": 6756,
      "disobeyed": 6757,
      "disrespectful": 6758,
      "brid": 6759,
      "cameras": 6760,
      "shore": 6761,
      "shoel": 6762,
      "chef": 6763,
      "understandable": 6764,
      "differs": 6765,
      "winner": 6766,
      "hurricane": 6767,
      "decline": 6768,
      "visible": 6769,
      "parent": 6770,
      "owed": 6771,
      "catches": 6772,
      "fiction": 6773,
      "breast": 6774,
      "matches": 6775,
      "biting": 6776,
      "drill": 6777,
      "mps": 6778,
      "watering": 6779,
      "watermelon": 6780,
      "rung": 6781,
      "strategy": 6782,
      "hike": 6783,
      "greater": 6784,
      "july": 6785,
      "dinosa": 6786,
      "skirts": 6787,
      "trusting": 6788,
      "dug": 6789,
      "duck": 6790,
      "vocation": 6791,
      "votes": 6792,
      "ipment": 6793,
      "shadow": 6794,
      "passion": 6795,
      "passenger": 6796,
      "trim": 6797,
      "trial": 6798,
      "nuck": 6799,
      "sickness": 6800,
      "califor": 6801,
      "hum": 6802,
      "guessing": 6803,
      "ballo": 6804,
      "observant": 6805,
      "forms": 6806,
      "salty": 6807,
      "snowstorm": 6808,
      "troubles": 6809,
      "confirmed": 6810,
      "conflict": 6811,
      "testify": 6812,
      "couraging": 6813,
      "curse": 6814,
      "worthless": 6815,
      "worthwhile": 6816,
      "spontaneous": 6817,
      "ffle": 6818,
      "growth": 6819,
      "blos": 6820,
      "cardboard": 6821,
      "sixteen": 6822,
      "corrected": 6823,
      "freak": 6824,
      "banks": 6825,
      "taxis": 6826,
      "barbe": 6827,
      "facing": 6828,
      "doubted": 6829,
      "punched": 6830,
      "drawn": 6831,
      "fatal": 6832,
      "protesters": 6833,
      "extro": 6834,
      "cello": 6835,
      "concerns": 6836,
      "jumping": 6837,
      "flute": 6838,
      "generation": 6839,
      "doubtful": 6840,
      "produces": 6841,
      "193": 6842,
      "boarding": 6843,
      "supervis": 6844,
      "buttoned": 6845,
      "solid": 6846,
      "organic": 6847,
      "gasoline": 6848,
      "villagers": 6849,
      "versary": 6850,
      "tightly": 6851,
      "demanding": 6852,
      "appeal": 6853,
      "peacefully": 6854,
      "millions": 6855,
      "idiots": 6856,
      "frightening": 6857,
      "humanity": 6858,
      "wounds": 6859,
      "butterfly": 6860,
      "equipment": 6861,
      "speeding": 6862,
      "napkin": 6863,
      "educated": 6864,
      "official": 6865,
      "witnesses": 6866,
      "criminals": 6867,
      "existence": 6868,
      "twist": 6869,
      "noises": 6870,
      "cheered": 6871,
      "racist": 6872,
      "narrowly": 6873,
      "separate": 6874,
      "faithful": 6875,
      "whisper": 6876,
      "fascinated": 6877,
      "obliged": 6878,
      "whales": 6879,
      "aborate": 6880,
      "barked": 6881,
      "develop": 6882,
      "advertise": 6883,
      "advertising": 6884,
      "protested": 6885,
      "notified": 6886,
      "title": 6887,
      "russian": 6888,
      "wandered": 6889,
      "refreshing": 6890,
      "benefit": 6891,
      "mutual": 6892,
      "analy": 6893,
      "exercising": 6894,
      "enthusiastic": 6895,
      "yawn": 6896,
      "prescribed": 6897,
      "prudent": 6898,
      "panting": 6899,
      "deliberately": 6900,
      "nauseous": 6901,
      "occupied": 6902,
      "announcement": 6903,
      "inherited": 6904,
      "sarcastic": 6905,
      "january": 6906,
      "sucker": 6907,
      "shivering": 6908,
      "swollen": 6909,
      "anniversary": 6910,
      "expelled": 6911,
      "carpenter": 6912,
      "baffled": 6913,
      "september": 6914,
      "prejudic": 6915,
      "chopsticks": 6916,
      "california": 6917,
      "60": 6918,
      "cain": 6919,
      "cart": 6920,
      "ctic": 6921,
      "cue": 6922,
      "dant": 6923,
      "dangers": 6924,
      "dorm": 6925,
      "fau": 6926,
      "imed": 6927,
      "jes": 6928,
      "juni": 6929,
      "ki": 6930,
      "knot": 6931,
      "kers": 6932,
      "lam": 6933,
      "mice": 6934,
      "ophone": 6935,
      "oga": 6936,
      "rust": 6937,
      "rated": 6938,
      "rates": 6939,
      "snor": 6940,
      "swed": 6941,
      "wages": 6942,
      "xophone": 6943,
      "yage": 6944,
      "yball": 6945,
      "inate": 6946,
      "intru": 6947,
      "inhabit": 6948,
      "intense": 6949,
      "infection": 6950,
      "invention": 6951,
      "rein": 6952,
      "atically": 6953,
      "melo": 6954,
      "asian": 6955,
      "itis": 6956,
      "ensive": 6957,
      "enorm": 6958,
      "aris": 6959,
      "leaf": 6960,
      "nove": 6961,
      "hawa": 6962,
      "hairsty": 6963,
      "bes": 6964,
      "liber": 6965,
      "lipstick": 6966,
      "forcing": 6967,
      "location": 6968,
      "rib": 6969,
      "rip": 6970,
      "sob": 6971,
      "soil": 6972,
      "cocain": 6973,
      "gestu": 6974,
      "unlock": 6975,
      "undant": 6976,
      "sued": 6977,
      "imper": 6978,
      "immature": 6979,
      "trail": 6980,
      "shor": 6981,
      "endar": 6982,
      "ode": 6983,
      "marked": 6984,
      "margar": 6985,
      "urban": 6986,
      "abouts": 6987,
      "saxophone": 6988,
      "poster": 6989,
      "seek": 6990,
      "agues": 6991,
      "indi": 6992,
      "prov": 6993,
      "ula": 6994,
      "ulated": 6995,
      "quant": 6996,
      "whereabouts": 6997,
      "coma": 6998,
      "comic": 6999,
      "compre": 7000,
      "persever": 7001,
      "elaborate": 7002,
      "aud": 7003,
      "makeup": 7004,
      "mule": 7005,
      "joint": 7006,
      "species": 7007,
      "ishing": 7008,
      "offensive": 7009,
      "iceberg": 7010,
      "backup": 7011,
      "backpack": 7012,
      "choo": 7013,
      "divide": 7014,
      "apping": 7015,
      "hedge": 7016,
      "estab": 7017,
      "estimate": 7018,
      "assigned": 7019,
      "mented": 7020,
      "overtime": 7021,
      "dissatisfied": 7022,
      "disagreed": 7023,
      "brakes": 7024,
      "earrings": 7025,
      "handcuff": 7026,
      "chew": 7027,
      "chewed": 7028,
      "finicky": 7029,
      "ciali": 7030,
      "questioned": 7031,
      "dresses": 7032,
      "decre": 7033,
      "beds": 7034,
      "portug": 7035,
      "label": 7036,
      "shown": 7037,
      "medit": 7038,
      "medal": 7039,
      "parag": 7040,
      "function": 7041,
      "matic": 7042,
      "blouse": 7043,
      "sery": 7044,
      "crept": 7045,
      "sentenced": 7046,
      "string": 7047,
      "picasso": 7048,
      "primary": 7049,
      "contacts": 7050,
      "dresser": 7051,
      "floats": 7052,
      "imported": 7053,
      "voting": 7054,
      "volle": 7055,
      "voyage": 7056,
      "lating": 7057,
      "lates": 7058,
      "farther": 7059,
      "scrubbed": 7060,
      "advanced": 7061,
      "tries": 7062,
      "fireworks": 7063,
      "numer": 7064,
      "corpor": 7065,
      "logic": 7066,
      "cafe": 7067,
      "musical": 7068,
      "tales": 7069,
      "obst": 7070,
      "cuted": 7071,
      "presented": 7072,
      "appoint": 7073,
      "beginners": 7074,
      "pattern": 7075,
      "cleaner": 7076,
      "crafty": 7077,
      "telephoned": 7078,
      "berry": 7079,
      "bercu": 7080,
      "rivers": 7081,
      "biased": 7082,
      "calendar": 7083,
      "hotels": 7084,
      "travelers": 7085,
      "simpler": 7086,
      "cucumber": 7087,
      "distant": 7088,
      "imagining": 7089,
      "entific": 7090,
      "bothers": 7091,
      "warmly": 7092,
      "struggle": 7093,
      "billion": 7094,
      "starve": 7095,
      "starch": 7096,
      "protected": 7097,
      "controver": 7098,
      "speechless": 7099,
      "tues": 7100,
      "tubercu": 7101,
      "eyebrow": 7102,
      "calmly": 7103,
      "195": 7104,
      "protecting": 7105,
      "scientific": 7106,
      "marrying": 7107,
      "blinded": 7108,
      "tighten": 7109,
      "museums": 7110,
      "suspects": 7111,
      "peaceful": 7112,
      "chocolates": 7113,
      "pushing": 7114,
      "intends": 7115,
      "talents": 7116,
      "nursery": 7117,
      "brightest": 7118,
      "hydr": 7119,
      "cabinet": 7120,
      "claimed": 7121,
      "equi": 7122,
      "bowling": 7123,
      "celebrated": 7124,
      "fingernails": 7125,
      "suspicion": 7126,
      "resignation": 7127,
      "scope": 7128,
      "saturdays": 7129,
      "inviting": 7130,
      "repairing": 7131,
      "campus": 7132,
      "intentions": 7133,
      "volunteering": 7134,
      "behaves": 7135,
      "insured": 7136,
      "insulted": 7137,
      "expression": 7138,
      "stomacha": 7139,
      "programs": 7140,
      "criticized": 7141,
      "quarters": 7142,
      "wiser": 7143,
      "physic": 7144,
      "contributed": 7145,
      "tricky": 7146,
      "regarded": 7147,
      "bullets": 7148,
      "barefoot": 7149,
      "exceptions": 7150,
      "shouted": 7151,
      "economics": 7152,
      "receiving": 7153,
      "honeymoon": 7154,
      "italian": 7155,
      "diamonds": 7156,
      "calculated": 7157,
      "traditional": 7158,
      "scratched": 7159,
      "texting": 7160,
      "activity": 7161,
      "associ": 7162,
      "diplomatic": 7163,
      "reveal": 7164,
      "microphone": 7165,
      "anticipated": 7166,
      "stitches": 7167,
      "losis": 7168,
      "sailors": 7169,
      "abolished": 7170,
      "deepest": 7171,
      "muscles": 7172,
      "chips": 7173,
      "pharmacy": 7174,
      "mushroom": 7175,
      "folks": 7176,
      "babysitter": 7177,
      "lord": 7178,
      "wanna": 7179,
      "inspired": 7180,
      "orphan": 7181,
      "judgment": 7182,
      "scarcely": 7183,
      "automobile": 7184,
      "nickname": 7185,
      "festival": 7186,
      "entitled": 7187,
      "obsessed": 7188,
      "lyrics": 7189,
      "unbearable": 7190,
      "tragedy": 7191,
      "poetry": 7192,
      "disposal": 7193,
      "blosso": 7194,
      "junior": 7195,
      "enormous": 7196,
      "hairstyle": 7197,
      "cocaine": 7198,
      "comprehen": 7199,
      "portugal": 7200,
      "volleyball": 7201,
      "tuberculosis": 7202,
      "ald": 7203,
      "bable": 7204,
      "cen": 7205,
      "dor": 7206,
      "ditch": 7207,
      "drenched": 7208,
      "fuse": 7209,
      "flaw": 7210,
      "fying": 7211,
      "hj": 7212,
      "iv": 7213,
      "jung": 7214,
      "kan": 7215,
      "kins": 7216,
      "lous": 7217,
      "lished": 7218,
      "nast": 7219,
      "nie": 7220,
      "ored": 7221,
      "ologist": 7222,
      "pies": 7223,
      "rag": 7224,
      "tide": 7225,
      "tissue": 7226,
      "witch": 7227,
      "thread": 7228,
      "infect": 7229,
      "inched": 7230,
      "inspir": 7231,
      "inconvenience": 7232,
      "rear": 7233,
      "rebe": 7234,
      "reap": 7235,
      "review": 7236,
      "returning": 7237,
      "isher": 7238,
      "heels": 7239,
      "mel": 7240,
      "melting": 7241,
      "edible": 7242,
      "arab": 7243,
      "arians": 7244,
      "iden": 7245,
      "goose": 7246,
      "chill": 7247,
      "robot": 7248,
      "rocket": 7249,
      "washes": 7250,
      "forks": 7251,
      "lovers": 7252,
      "wicked": 7253,
      "nephe": 7254,
      "whatso": 7255,
      "tible": 7256,
      "ripe": 7257,
      "riculture": 7258,
      "sow": 7259,
      "adap": 7260,
      "cowards": 7261,
      "covid": 7262,
      "teles": 7263,
      "anded": 7264,
      "unturned": 7265,
      "unreasonable": 7266,
      "unfounded": 7267,
      "unacceptable": 7268,
      "unavoidable": 7269,
      "abuse": 7270,
      "mold": 7271,
      "fees": 7272,
      "pears": 7273,
      "peaches": 7274,
      "suff": 7275,
      "tering": 7276,
      "trace": 7277,
      "thern": 7278,
      "worsen": 7279,
      "histori": 7280,
      "iffy": 7281,
      "uted": 7282,
      "update": 7283,
      "plat": 7284,
      "endure": 7285,
      "odles": 7286,
      "dear": 7287,
      "delete": 7288,
      "sailing": 7289,
      "agent": 7290,
      "agriculture": 7291,
      "stored": 7292,
      "procr": 7293,
      "prospect": 7294,
      "justify": 7295,
      "cony": 7296,
      "consent": 7297,
      "convey": 7298,
      "quate": 7299,
      "astute": 7300,
      "helor": 7301,
      "amer": 7302,
      "compo": 7303,
      "froze": 7304,
      "avement": 7305,
      "fax": 7306,
      "fried": 7307,
      "spit": 7308,
      "spark": 7309,
      "prev": 7310,
      "speare": 7311,
      "backs": 7312,
      "background": 7313,
      "bugging": 7314,
      "chopin": 7315,
      "mansion": 7316,
      "dime": 7317,
      "dial": 7318,
      "dipped": 7319,
      "mistry": 7320,
      "fier": 7321,
      "wage": 7322,
      "restroom": 7323,
      "waits": 7324,
      "housework": 7325,
      "believing": 7326,
      "overlook": 7327,
      "dislikes": 7328,
      "discrimin": 7329,
      "disorient": 7330,
      "teddy": 7331,
      "bride": 7332,
      "chemistry": 7333,
      "massage": 7334,
      "cian": 7335,
      "mostly": 7336,
      "grin": 7337,
      "mono": 7338,
      "remen": 7339,
      "tics": 7340,
      "cattle": 7341,
      "parano": 7342,
      "opener": 7343,
      "serving": 7344,
      "raincoat": 7345,
      "sidewalk": 7346,
      "beings": 7347,
      "begging": 7348,
      "armchair": 7349,
      "priced": 7350,
      "headlights": 7351,
      "hunch": 7352,
      "ignant": 7353,
      "skim": 7354,
      "fract": 7355,
      "invinci": 7356,
      "sunshine": 7357,
      "senior": 7358,
      "firefight": 7359,
      "steep": 7360,
      "parks": 7361,
      "hudd": 7362,
      "sipped": 7363,
      "thirties": 7364,
      "allows": 7365,
      "highway": 7366,
      "observe": 7367,
      "towns": 7368,
      "snows": 7369,
      "vienna": 7370,
      "horn": 7371,
      "confide": 7372,
      "bicycles": 7373,
      "countryside": 7374,
      "figures": 7375,
      "counted": 7376,
      "catching": 7377,
      "finishing": 7378,
      "secretly": 7379,
      "ashtray": 7380,
      "teams": 7381,
      "cript": 7382,
      "grandpa": 7383,
      "grandchildren": 7384,
      "grandma": 7385,
      "mahj": 7386,
      "emptied": 7387,
      "hitch": 7388,
      "colleagues": 7389,
      "apologies": 7390,
      "riddle": 7391,
      "patiently": 7392,
      "convinc": 7393,
      "dedic": 7394,
      "freaked": 7395,
      "subur": 7396,
      "footprints": 7397,
      "cutive": 7398,
      "flush": 7399,
      "screwed": 7400,
      "popcorn": 7401,
      "souven": 7402,
      "poorly": 7403,
      "swallowed": 7404,
      "swiss": 7405,
      "temples": 7406,
      "locker": 7407,
      "joining": 7408,
      "woodchuck": 7409,
      "snif": 7410,
      "snickering": 7411,
      "earliest": 7412,
      "amped": 7413,
      "proves": 7414,
      "powers": 7415,
      "machines": 7416,
      "evident": 7417,
      "specialist": 7418,
      "introverted": 7419,
      "cluded": 7420,
      "pleasantly": 7421,
      "regained": 7422,
      "boards": 7423,
      "brick": 7424,
      "treaty": 7425,
      "fruits": 7426,
      "solving": 7427,
      "organize": 7428,
      "adequate": 7429,
      "euros": 7430,
      "seafood": 7431,
      "exploded": 7432,
      "sorts": 7433,
      "typewriter": 7434,
      "annoys": 7435,
      "ironed": 7436,
      "harmless": 7437,
      "brushing": 7438,
      "istics": 7439,
      "crop": 7440,
      "crooked": 7441,
      "princip": 7442,
      "elders": 7443,
      "instruments": 7444,
      "scot": 7445,
      "groan": 7446,
      "grocer": 7447,
      "groggy": 7448,
      "campfire": 7449,
      "tendency": 7450,
      "towels": 7451,
      "instant": 7452,
      "slightest": 7453,
      "dishonest": 7454,
      "consumption": 7455,
      "competitive": 7456,
      "itution": 7457,
      "fashionable": 7458,
      "rers": 7459,
      "strenuous": 7460,
      "kilos": 7461,
      "extraordinary": 7462,
      "physically": 7463,
      "survival": 7464,
      "optimist": 7465,
      "shakespeare": 7466,
      "weighs": 7467,
      "techni": 7468,
      "technical": 7469,
      "balcony": 7470,
      "replied": 7471,
      "ignoring": 7472,
      "employee": 7473,
      "creeps": 7474,
      "flip": 7475,
      "railway": 7476,
      "regardless": 7477,
      "loads": 7478,
      "companies": 7479,
      "congratulate": 7480,
      "vanished": 7481,
      "screwdriver": 7482,
      "magician": 7483,
      "bruise": 7484,
      "frustrating": 7485,
      "britain": 7486,
      "thoroughly": 7487,
      "lemons": 7488,
      "automatically": 7489,
      "biology": 7490,
      "stretch": 7491,
      "participated": 7492,
      "collapse": 7493,
      "bachelor": 7494,
      "stingy": 7495,
      "smoothly": 7496,
      "severely": 7497,
      "benefits": 7498,
      "kore": 7499,
      "demonstration": 7500,
      "palace": 7501,
      "blushing": 7502,
      "heartedly": 7503,
      "olympic": 7504,
      "olympics": 7505,
      "pierced": 7506,
      "tunnel": 7507,
      "squeeze": 7508,
      "fetch": 7509,
      "errands": 7510,
      "prosper": 7511,
      "evacuate": 7512,
      "scape": 7513,
      "resembles": 7514,
      "acknowledged": 7515,
      "philoso": 7516,
      "hypnoti": 7517,
      "hangover": 7518,
      "poisoned": 7519,
      "conspiracy": 7520,
      "shoelaces": 7521,
      "dinosaurs": 7522,
      "extroverted": 7523,
      "prejudiced": 7524,
      "faucet": 7525,
      "jesus": 7526,
      "hawaii": 7527,
      "individ": 7528,
      "numerous": 7529,
      "tuesday": 7530,
      "eyebrows": 7531,
      "stomachache": 7532,
      "jungle": 7533,
      "lousy": 7534,
      "niece": 7535,
      "infected": 7536,
      "whatsoever": 7537,
      "telescope": 7538,
      "procrast": 7539,
      "paranoid": 7540,
      "invincible": 7541,
      "huddled": 7542,
      "mahjong": 7543,
      "convincing": 7544,
      "principal": 7545,
      "bble": 7546,
      "bang": 7547,
      "bla": 7548,
      "bers": 7549,
      "crude": 7550,
      "dar": 7551,
      "dwell": 7552,
      "dles": 7553,
      "eli": 7554,
      "eag": 7555,
      "fist": 7556,
      "fla": 7557,
      "fled": 7558,
      "ggling": 7559,
      "hil": 7560,
      "iles": 7561,
      "kar": 7562,
      "lk": 7563,
      "liness": 7564,
      "mated": 7565,
      "nate": 7566,
      "nav": 7567,
      "os": 7568,
      "oak": 7569,
      "pus": 7570,
      "pry": 7571,
      "praised": 7572,
      "rank": 7573,
      "sack": 7574,
      "signing": 7575,
      "tab": 7576,
      "tac": 7577,
      "vation": 7578,
      "vom": 7579,
      "wal": 7580,
      "thr": 7581,
      "ths": 7582,
      "toed": 7583,
      "torious": 7584,
      "ina": 7585,
      "inating": 7586,
      "insensitive": 7587,
      "retiring": 7588,
      "onies": 7589,
      "mesme": 7590,
      "merely": 7591,
      "ingen": 7592,
      "orche": 7593,
      "endid": 7594,
      "era": 7595,
      "leon": 7596,
      "letic": 7597,
      "dogh": 7598,
      "behalf": 7599,
      "seaside": 7600,
      "lican": 7601,
      "liars": 7602,
      "lihood": 7603,
      "rol": 7604,
      "ropho": 7605,
      "alo": 7606,
      "hore": 7607,
      "forth": 7608,
      "former": 7609,
      "losses": 7610,
      "wig": 7611,
      "wires": 7612,
      "tiger": 7613,
      "rily": 7614,
      "sole": 7615,
      "advo": 7616,
      "adding": 7617,
      "admir": 7618,
      "teous": 7619,
      "undress": 7620,
      "unimportant": 7621,
      "unusually": 7622,
      "unambitious": 7623,
      "abilities": 7624,
      "user": 7625,
      "acious": 7626,
      "hered": 7627,
      "mower": 7628,
      "withdraw": 7629,
      "sustained": 7630,
      "therap": 7631,
      "ustropho": 7632,
      "pleaded": 7633,
      "utmost": 7634,
      "enda": 7635,
      "ende": 7636,
      "urous": 7637,
      "deck": 7638,
      "demented": 7639,
      "agon": 7640,
      "agency": 7641,
      "agitated": 7642,
      "agenda": 7643,
      "excess": 7644,
      "ulary": 7645,
      "confron": 7646,
      "concluded": 7647,
      "quo": 7648,
      "ques": 7649,
      "quil": 7650,
      "perform": 7651,
      "august": 7652,
      "spat": 7653,
      "spouse": 7654,
      "thoughtful": 7655,
      "gum": 7656,
      "guid": 7657,
      "buck": 7658,
      "mbus": 7659,
      "itement": 7660,
      "dipping": 7661,
      "booked": 7662,
      "angrily": 7663,
      "misses": 7664,
      "drought": 7665,
      "drastic": 7666,
      "resting": 7667,
      "restart": 7668,
      "restrain": 7669,
      "assign": 7670,
      "overnight": 7671,
      "overcoat": 7672,
      "disgra": 7673,
      "distract": 7674,
      "braces": 7675,
      "earring": 7676,
      "handic": 7677,
      "handles": 7678,
      "camels": 7679,
      "stern": 7680,
      "financi": 7681,
      "ruden": 7682,
      "moral": 7683,
      "actual": 7684,
      "monster": 7685,
      "monia": 7686,
      "dreamer": 7687,
      "deciding": 7688,
      "doorbell": 7689,
      "catastro": 7690,
      "stoned": 7691,
      "parall": 7692,
      "parrot": 7693,
      "breed": 7694,
      "blushed": 7695,
      "rainbow": 7696,
      "izes": 7697,
      "theirs": 7698,
      "clerk": 7699,
      "design": 7700,
      "athletic": 7701,
      "identity": 7702,
      "contacted": 7703,
      "ketch": 7704,
      "airplanes": 7705,
      "owners": 7706,
      "dub": 7707,
      "dum": 7708,
      "arrival": 7709,
      "frantic": 7710,
      "invaded": 7711,
      "vocab": 7712,
      "meetings": 7713,
      "shaving": 7714,
      "sunk": 7715,
      "cork": 7716,
      "stew": 7717,
      "freeze": 7718,
      "freezes": 7719,
      "denying": 7720,
      "sial": 7721,
      "siren": 7722,
      "hats": 7723,
      "tress": 7724,
      "patrol": 7725,
      "excitement": 7726,
      "summit": 7727,
      "throughout": 7728,
      "consist": 7729,
      "spoons": 7730,
      "genic": 7731,
      "aliens": 7732,
      "facebook": 7733,
      "courteous": 7734,
      "cupboard": 7735,
      "strangely": 7736,
      "bagpipes": 7737,
      "emphas": 7738,
      "smartest": 7739,
      "blocking": 7740,
      "azed": 7741,
      "vacations": 7742,
      "drunken": 7743,
      "gardening": 7744,
      "flab": 7745,
      "flinch": 7746,
      "flinched": 7747,
      "barrow": 7748,
      "cynical": 7749,
      "factories": 7750,
      "satisfac": 7751,
      "photogenic": 7752,
      "burden": 7753,
      "belonged": 7754,
      "dependable": 7755,
      "mailbox": 7756,
      "pasta": 7757,
      "lenses": 7758,
      "expand": 7759,
      "expired": 7760,
      "beats": 7761,
      "vegetarians": 7762,
      "specialty": 7763,
      "boats": 7764,
      "produced": 7765,
      "strive": 7766,
      "boarded": 7767,
      "burns": 7768,
      "appearances": 7769,
      "bassoon": 7770,
      "detailed": 7771,
      "conditioning": 7772,
      "conditioned": 7773,
      "proposed": 7774,
      "feeding": 7775,
      "feedback": 7776,
      "daddy": 7777,
      "bats": 7778,
      "blinds": 7779,
      "profile": 7780,
      "appealed": 7781,
      "universal": 7782,
      "grammat": 7783,
      "gaining": 7784,
      "subjects": 7785,
      "furi": 7786,
      "slap": 7787,
      "silently": 7788,
      "banjo": 7789,
      "exhaust": 7790,
      "artificial": 7791,
      "threats": 7792,
      "brightened": 7793,
      "planting": 7794,
      "harmful": 7795,
      "greece": 7796,
      "claustropho": 7797,
      "notebooks": 7798,
      "electrician": 7799,
      "toothbrush": 7800,
      "audio": 7801,
      "bait": 7802,
      "judgement": 7803,
      "hesitant": 7804,
      "scores": 7805,
      "investigate": 7806,
      "adopt": 7807,
      "adores": 7808,
      "splendid": 7809,
      "sources": 7810,
      "instantly": 7811,
      "shaves": 7812,
      "wheels": 7813,
      "wheelbarrow": 7814,
      "despises": 7815,
      "fancy": 7816,
      "masterpiece": 7817,
      "lining": 7818,
      "reservations": 7819,
      "measured": 7820,
      "bombs": 7821,
      "directly": 7822,
      "reporter": 7823,
      "separately": 7824,
      "miracles": 7825,
      "launched": 7826,
      "bargained": 7827,
      "plugged": 7828,
      "industri": 7829,
      "topics": 7830,
      "literally": 7831,
      "statistics": 7832,
      "influential": 7833,
      "loyment": 7834,
      "variety": 7835,
      "channel": 7836,
      "implying": 7837,
      "crawl": 7838,
      "replaceable": 7839,
      "snacks": 7840,
      "slippers": 7841,
      "canoe": 7842,
      "guarante": 7843,
      "gathering": 7844,
      "conceited": 7845,
      "revealed": 7846,
      "uniforms": 7847,
      "adventure": 7848,
      "adventurous": 7849,
      "entertaining": 7850,
      "astrology": 7851,
      "jewels": 7852,
      "challenges": 7853,
      "squirrels": 7854,
      "blackmailed": 7855,
      "shells": 7856,
      "clients": 7857,
      "contradicting": 7858,
      "zipper": 7859,
      "executed": 7860,
      "shuffle": 7861,
      "dolphin": 7862,
      "dolphins": 7863,
      "escorted": 7864,
      "terrorists": 7865,
      "overwhelmed": 7866,
      "cycling": 7867,
      "hamburger": 7868,
      "exhibition": 7869,
      "intolerable": 7870,
      "christian": 7871,
      "convicted": 7872,
      "leftovers": 7873,
      "attentively": 7874,
      "disguised": 7875,
      "iterate": 7876,
      "vaccine": 7877,
      "atlantic": 7878,
      "contributing": 7879,
      "archae": 7880,
      "barbecue": 7881,
      "melody": 7882,
      "novelist": 7883,
      "sobbing": 7884,
      "margarine": 7885,
      "appointments": 7886,
      "controversial": 7887,
      "dormi": 7888,
      "kanji": 7889,
      "nasty": 7890,
      "rebels": 7891,
      "melons": 7892,
      "identical": 7893,
      "nephew": 7894,
      "fierce": 7895,
      "discrimination": 7896,
      "disoriented": 7897,
      "suburbs": 7898,
      "procrastinating": 7899,
      "eagle": 7900,
      "navy": 7901,
      "mesmeri": 7902,
      "orchestra": 7903,
      "doghouse": 7904,
      "confronted": 7905,
      "financially": 7906,
      "rudeness": 7907,
      "vocabulary": 7908,
      "23": 7909,
      "24": 7910,
      "65": 7911,
      "avor": 7912,
      "adow": 7913,
      "aholic": 7914,
      "bb": 7915,
      "biz": 7916,
      "baking": 7917,
      "barri": 7918,
      "cable": 7919,
      "damp": 7920,
      "fra": 7921,
      "gs": 7922,
      "gap": 7923,
      "hut": 7924,
      "hous": 7925,
      "hives": 7926,
      "ili": 7927,
      "jit": 7928,
      "jiffy": 7929,
      "kim": 7930,
      "lis": 7931,
      "mical": 7932,
      "nam": 7933,
      "nip": 7934,
      "obo": 7935,
      "oph": 7936,
      "omed": 7937,
      "pod": 7938,
      "pam": 7939,
      "punch": 7940,
      "plow": 7941,
      "pneu": 7942,
      "rul": 7943,
      "rack": 7944,
      "rants": 7945,
      "rinse": 7946,
      "sorrow": 7947,
      "sche": 7948,
      "ud": 7949,
      "uing": 7950,
      "ument": 7951,
      "ufact": 7952,
      "vage": 7953,
      "virt": 7954,
      "valley": 7955,
      "wate": 7956,
      "wrest": 7957,
      "ypt": 7958,
      "zip": 7959,
      "thunder": 7960,
      "thoven": 7961,
      "oul": 7962,
      "tol": 7963,
      "tored": 7964,
      "incl": 7965,
      "independ": 7966,
      "insufficient": 7967,
      "infuri": 7968,
      "remarried": 7969,
      "recycle": 7970,
      "theart": 7971,
      "atm": 7972,
      "veter": 7973,
      "heed": 7974,
      "meadow": 7975,
      "asm": 7976,
      "assess": 7977,
      "assuming": 7978,
      "editor": 7979,
      "itian": 7980,
      "itals": 7981,
      "strain": 7982,
      "stating": 7983,
      "arre": 7984,
      "noodles": 7985,
      "dote": 7986,
      "dozed": 7987,
      "weed": 7988,
      "whirl": 7989,
      "seize": 7990,
      "keted": 7991,
      "ayed": 7992,
      "lif": 7993,
      "liers": 7994,
      "goggles": 7995,
      "chor": 7996,
      "roy": 7997,
      "robo": 7998,
      "ropes": 7999,
      "romance": 8000,
      "altogether": 8001,
      "alps": 8002,
      "hobb": 8003,
      "alleg": 8004,
      "ghth": 8005,
      "lover": 8006,
      "lobby": 8007,
      "ria": 8008,
      "soci": 8009,
      "soaking": 8010,
      "soared": 8011,
      "wanting": 8012,
      "cereal": 8013,
      "outra": 8014,
      "teas": 8015,
      "undecided": 8016,
      "unwilling": 8017,
      "uncommon": 8018,
      "unimpressed": 8019,
      "unfriendly": 8020,
      "unbuttoned": 8021,
      "acid": 8022,
      "likelihood": 8023,
      "bolted": 8024,
      "mob": 8025,
      "mole": 8026,
      "motive": 8027,
      "mometer": 8028,
      "fellow": 8029,
      "febru": 8030,
      "pecu": 8031,
      "immun": 8032,
      "immig": 8033,
      "trag": 8034,
      "trau": 8035,
      "thermometer": 8036,
      "ickered": 8037,
      "worms": 8038,
      "plead": 8039,
      "utch": 8040,
      "upcoming": 8041,
      "upload": 8042,
      "plum": 8043,
      "odor": 8044,
      "odds": 8045,
      "amate": 8046,
      "amounts": 8047,
      "delu": 8048,
      "define": 8049,
      "poke": 8050,
      "needles": 8051,
      "agged": 8052,
      "exceed": 8053,
      "expose": 8054,
      "indignant": 8055,
      "workaholic": 8056,
      "condo": 8057,
      "concept": 8058,
      "asts": 8059,
      "illa": 8060,
      "commission": 8061,
      "raph": 8062,
      "performed": 8063,
      "acks": 8064,
      "blessed": 8065,
      "aves": 8066,
      "affection": 8067,
      "spreading": 8068,
      "mune": 8069,
      "mugged": 8070,
      "muggy": 8071,
      "offense": 8072,
      "igner": 8073,
      "bucks": 8074,
      "manner": 8075,
      "manufact": 8076,
      "wob": 8077,
      "woo": 8078,
      "lasts": 8079,
      "dile": 8080,
      "diving": 8081,
      "underwear": 8082,
      "dram": 8083,
      "waving": 8084,
      "cloak": 8085,
      "disobey": 8086,
      "disney": 8087,
      "bragging": 8088,
      "handling": 8089,
      "hardworking": 8090,
      "showered": 8091,
      "sition": 8092,
      "chemical": 8093,
      "greasy": 8094,
      "ruins": 8095,
      "monument": 8096,
      "torn": 8097,
      "torture": 8098,
      "drinkable": 8099,
      "xture": 8100,
      "opens": 8101,
      "mint": 8102,
      "mattress": 8103,
      "blur": 8104,
      "blings": 8105,
      "server": 8106,
      "cremated": 8107,
      "sidetracked": 8108,
      "izoph": 8109,
      "mpy": 8110,
      "suppress": 8111,
      "plained": 8112,
      "beggar": 8113,
      "strings": 8114,
      "hip": 8115,
      "desc": 8116,
      "desired": 8117,
      "desires": 8118,
      "designer": 8119,
      "smith": 8120,
      "nicely": 8121,
      "ignition": 8122,
      "floating": 8123,
      "jection": 8124,
      "frame": 8125,
      "beautifully": 8126,
      "ipad": 8127,
      "enjoyable": 8128,
      "scale": 8129,
      "fires": 8130,
      "fireman": 8131,
      "nue": 8132,
      "nude": 8133,
      "accidentally": 8134,
      "steals": 8135,
      "steering": 8136,
      "fishy": 8137,
      "dense": 8138,
      "denies": 8139,
      "monthly": 8140,
      "dieting": 8141,
      "sigh": 8142,
      "siblings": 8143,
      "cran": 8144,
      "crank": 8145,
      "allowance": 8146,
      "formal": 8147,
      "patri": 8148,
      "elec": 8149,
      "vending": 8150,
      "capsized": 8151,
      "pupp": 8152,
      "examin": 8153,
      "berlin": 8154,
      "reflect": 8155,
      "clearing": 8156,
      "moves": 8157,
      "cricket": 8158,
      "curry": 8159,
      "zeal": 8160,
      "medications": 8161,
      "disappointment": 8162,
      "clip": 8163,
      "block": 8164,
      "mainly": 8165,
      "necessity": 8166,
      "rides": 8167,
      "transla": 8168,
      "transmit": 8169,
      "translating": 8170,
      "shuttle": 8171,
      "freaking": 8172,
      "gardener": 8173,
      "subtit": 8174,
      "successfully": 8175,
      "distances": 8176,
      "flushed": 8177,
      "chairperson": 8178,
      "blames": 8179,
      "screws": 8180,
      "satisfy": 8181,
      "umbrellas": 8182,
      "draft": 8183,
      "belongings": 8184,
      "extended": 8185,
      "extinct": 8186,
      "snickered": 8187,
      "chalk": 8188,
      "concerts": 8189,
      "tucked": 8190,
      "tuition": 8191,
      "tulips": 8192,
      "packs": 8193,
      "stuffed": 8194,
      "mailman": 8195,
      "relations": 8196,
      "services": 8197,
      "sticky": 8198,
      "expedition": 8199,
      "lending": 8200,
      "vegetable": 8201,
      "memorized": 8202,
      "clumsy": 8203,
      "mommy": 8204,
      "regul": 8205,
      "1945": 8206,
      "practiced": 8207,
      "tained": 8208,
      "governor": 8209,
      "passage": 8210,
      "operate": 8211,
      "attendance": 8212,
      "feeds": 8213,
      "harsh": 8214,
      "harbor": 8215,
      "sweetheart": 8216,
      "slim": 8217,
      "knob": 8218,
      "casual": 8219,
      "nonstop": 8220,
      "explanations": 8221,
      "eighty": 8222,
      "moonlight": 8223,
      "forgiveness": 8224,
      "membership": 8225,
      "hostage": 8226,
      "assured": 8227,
      "washington": 8228,
      "belly": 8229,
      "threaten": 8230,
      "hydro": 8231,
      "victorious": 8232,
      "equals": 8233,
      "dietitian": 8234,
      "accusation": 8235,
      "custody": 8236,
      "refuses": 8237,
      "heroes": 8238,
      "central": 8239,
      "accepting": 8240,
      "scored": 8241,
      "repairs": 8242,
      "tender": 8243,
      "concentrated": 8244,
      "concentrating": 8245,
      "bumper": 8246,
      "cracking": 8247,
      "officially": 8248,
      "permitting": 8249,
      "existed": 8250,
      "constitution": 8251,
      "twink": 8252,
      "twenti": 8253,
      "contents": 8254,
      "deceive": 8255,
      "deceased": 8256,
      "gentlemen": 8257,
      "mastering": 8258,
      "breathed": 8259,
      "racing": 8260,
      "racial": 8261,
      "jacksons": 8262,
      "poisoning": 8263,
      "poisonous": 8264,
      "repor": 8265,
      "resistance": 8266,
      "flipped": 8267,
      "whiskey": 8268,
      "trading": 8269,
      "digital": 8270,
      "honored": 8271,
      "unexplained": 8272,
      "settling": 8273,
      "beethoven": 8274,
      "bitterly": 8275,
      "leaks": 8276,
      "pointless": 8277,
      "bonus": 8278,
      "portra": 8279,
      "vanilla": 8280,
      "cooperative": 8281,
      "fundamental": 8282,
      "unemployment": 8283,
      "witnessed": 8284,
      "advertised": 8285,
      "protesting": 8286,
      "interpreted": 8287,
      "maiden": 8288,
      "consequence": 8289,
      "slope": 8290,
      "sloppy": 8291,
      "retirement": 8292,
      "flags": 8293,
      "temporarily": 8294,
      "frogs": 8295,
      "branches": 8296,
      "viral": 8297,
      "activities": 8298,
      "applaud": 8299,
      "defendant": 8300,
      "outrank": 8301,
      "combination": 8302,
      "mexican": 8303,
      "poorer": 8304,
      "hypothesis": 8305,
      "employer": 8306,
      "opponents": 8307,
      "entertained": 8308,
      "anticipate": 8309,
      "representative": 8310,
      "vacuum": 8311,
      "challenged": 8312,
      "blackmailing": 8313,
      "prompt": 8314,
      "enthusiasm": 8315,
      "bergasted": 8316,
      "bankruptcy": 8317,
      "obligation": 8318,
      "lungs": 8319,
      "shrink": 8320,
      "squeezed": 8321,
      "booze": 8322,
      "overwhelming": 8323,
      "distributed": 8324,
      "hamburgers": 8325,
      "schizoph": 8326,
      "extingu": 8327,
      "extinguish": 8328,
      "beneath": 8329,
      "vulgar": 8330,
      "hacksaw": 8331,
      "assertive": 8332,
      "overe": 8333,
      "swelling": 8334,
      "candidate": 8335,
      "columbus": 8336,
      "geography": 8337,
      "pudding": 8338,
      "farewell": 8339,
      "stapler": 8340,
      "comparison": 8341,
      "chapter": 8342,
      "mammal": 8343,
      "whispering": 8344,
      "snoring": 8345,
      "inhabitants": 8346,
      "liberty": 8347,
      "gesture": 8348,
      "quantity": 8349,
      "established": 8350,
      "paragraph": 8351,
      "cafeteria": 8352,
      "cucumbers": 8353,
      "blossoms": 8354,
      "inspiration": 8355,
      "arabic": 8356,
      "platform": 8357,
      "composer": 8358,
      "technique": 8359,
      "philosophy": 8360,
      "individual": 8361,
      "hilton": 8362,
      "karate": 8363,
      "endeavor": 8364,
      "parallel": 8365,
      "flabbergasted": 8366,
      "flinching": 8367,
      "satisfaction": 8368,
      "guaranteed": 8369,
      "bizarre": 8370,
      "housing": 8371,
      "oboe": 8372,
      "pneumonia": 8373,
      "watered": 8374,
      "inclined": 8375,
      "independence": 8376,
      "robots": 8377,
      "hobbies": 8378,
      "outrageous": 8379,
      "february": 8380,
      "peculiar": 8381,
      "disneyland": 8382,
      "schizophren": 8383,
      "83": 8384,
      "airl": 8385,
      "awaits": 8386,
      "bust": 8387,
      "bish": 8388,
      "basked": 8389,
      "crun": 8390,
      "ckets": 8391,
      "dand": 8392,
      "dhis": 8393,
      "dive": 8394,
      "dread": 8395,
      "dign": 8396,
      "dna": 8397,
      "elo": 8398,
      "eaves": 8399,
      "fain": 8400,
      "fans": 8401,
      "gal": 8402,
      "gir": 8403,
      "glow": 8404,
      "gross": 8405,
      "iac": 8406,
      "jaw": 8407,
      "ku": 8408,
      "lab": 8409,
      "lance": 8410,
      "mour": 8411,
      "mount": 8412,
      "masks": 8413,
      "multi": 8414,
      "nin": 8415,
      "napo": 8416,
      "otic": 8417,
      "oath": 8418,
      "olives": 8419,
      "pts": 8420,
      "passes": 8421,
      "pony": 8422,
      "pavement": 8423,
      "raking": 8424,
      "scan": 8425,
      "sions": 8426,
      "swore": 8427,
      "slump": 8428,
      "tam": 8429,
      "vig": 8430,
      "waking": 8431,
      "xic": 8432,
      "yield": 8433,
      "yoga": 8434,
      "tho": 8435,
      "toll": 8436,
      "tose": 8437,
      "toast": 8438,
      "inha": 8439,
      "incur": 8440,
      "inexpensive": 8441,
      "infinite": 8442,
      "resent": 8443,
      "repay": 8444,
      "relied": 8445,
      "reconsidered": 8446,
      "reacted": 8447,
      "restored": 8448,
      "thed": 8449,
      "attract": 8450,
      "anic": 8451,
      "isure": 8452,
      "isode": 8453,
      "ongoing": 8454,
      "vehic": 8455,
      "mered": 8456,
      "inging": 8457,
      "asse": 8458,
      "asters": 8459,
      "encing": 8460,
      "encounter": 8461,
      "encouraging": 8462,
      "stal": 8463,
      "stag": 8464,
      "erup": 8465,
      "eraser": 8466,
      "leisure": 8467,
      "noxious": 8468,
      "dock": 8469,
      "hail": 8470,
      "hazard": 8471,
      "bever": 8472,
      "betic": 8473,
      "whining": 8474,
      "idle": 8475,
      "seal": 8476,
      "sevent": 8477,
      "secure": 8478,
      "keeper": 8479,
      "lilies": 8480,
      "chant": 8481,
      "choked": 8482,
      "donate": 8483,
      "robe": 8484,
      "roared": 8485,
      "hoax": 8486,
      "widow": 8487,
      "nest": 8488,
      "timing": 8489,
      "soaked": 8490,
      "core": 8491,
      "coke": 8492,
      "coco": 8493,
      "outs": 8494,
      "outgoing": 8495,
      "unit": 8496,
      "unsure": 8497,
      "undone": 8498,
      "unheard": 8499,
      "unforget": 8500,
      "unpredictable": 8501,
      "usa": 8502,
      "accomp": 8503,
      "acknowledge": 8504,
      "boot": 8505,
      "bores": 8506,
      "feared": 8507,
      "peak": 8508,
      "sured": 8509,
      "immune": 8510,
      "termin": 8511,
      "howling": 8512,
      "icient": 8513,
      "endless": 8514,
      "endings": 8515,
      "marsh": 8516,
      "marine": 8517,
      "marking": 8518,
      "amput": 8519,
      "amuse": 8520,
      "ambush": 8521,
      "dep": 8522,
      "delet": 8523,
      "depress": 8524,
      "sau": 8525,
      "pox": 8526,
      "poli": 8527,
      "poses": 8528,
      "stocks": 8529,
      "hasty": 8530,
      "indians": 8531,
      "aker": 8532,
      "condone": 8533,
      "context": 8534,
      "consuming": 8535,
      "amedic": 8536,
      "illiterate": 8537,
      "combat": 8538,
      "percep": 8539,
      "perfection": 8540,
      "frown": 8541,
      "episode": 8542,
      "sprained": 8543,
      "everest": 8544,
      "prey": 8545,
      "preposter": 8546,
      "talker": 8547,
      "spective": 8548,
      "speciali": 8549,
      "carp": 8550,
      "inef": 8551,
      "buff": 8552,
      "mbone": 8553,
      "mankind": 8554,
      "bookshelf": 8555,
      "bushes": 8556,
      "underwater": 8557,
      "underlined": 8558,
      "appall": 8559,
      "misled": 8560,
      "glue": 8561,
      "fianc": 8562,
      "firemen": 8563,
      "drama": 8564,
      "restless": 8565,
      "achie": 8566,
      "estimated": 8567,
      "assing": 8568,
      "clogged": 8569,
      "overcast": 8570,
      "overconfident": 8571,
      "overcooked": 8572,
      "discre": 8573,
      "disorder": 8574,
      "displayed": 8575,
      "discourage": 8576,
      "disagrees": 8577,
      "disadvantages": 8578,
      "downs": 8579,
      "download": 8580,
      "downloaded": 8581,
      "broch": 8582,
      "hardware": 8583,
      "camel": 8584,
      "finance": 8585,
      "hopeful": 8586,
      "rugged": 8587,
      "phoning": 8588,
      "grouch": 8589,
      "meets": 8590,
      "owl": 8591,
      "owls": 8592,
      "cating": 8593,
      "parcel": 8594,
      "paramedic": 8595,
      "blond": 8596,
      "creatures": 8597,
      "drifted": 8598,
      "easter": 8599,
      "easiest": 8600,
      "ysis": 8601,
      "stray": 8602,
      "hiv": 8603,
      "trainer": 8604,
      "fastened": 8605,
      "headaches": 8606,
      "hunt": 8607,
      "kidney": 8608,
      "juggle": 8609,
      "float": 8610,
      "tablecloth": 8611,
      "jelly": 8612,
      "truthful": 8613,
      "dump": 8614,
      "inval": 8615,
      "englishman": 8616,
      "sunburn": 8617,
      "sunburned": 8618,
      "scor": 8619,
      "scra": 8620,
      "trips": 8621,
      "numbered": 8622,
      "steer": 8623,
      "freely": 8624,
      "freezer": 8625,
      "ferti": 8626,
      "hatred": 8627,
      "tator": 8628,
      "obnoxious": 8629,
      "resigning": 8630,
      "attained": 8631,
      "cuts": 8632,
      "presentation": 8633,
      "probability": 8634,
      "warmed": 8635,
      "vied": 8636,
      "vibr": 8637,
      "secretive": 8638,
      "vened": 8639,
      "intervened": 8640,
      "capacity": 8641,
      "alized": 8642,
      "courtes": 8643,
      "hearts": 8644,
      "dealer": 8645,
      "darkness": 8646,
      "dictator": 8647,
      "movement": 8648,
      "curfew": 8649,
      "grandson": 8650,
      "paperwork": 8651,
      "legend": 8652,
      "territory": 8653,
      "northern": 8654,
      "solutions": 8655,
      "colleague": 8656,
      "risen": 8657,
      "cardio": 8658,
      "riddles": 8659,
      "emic": 8660,
      "mixture": 8661,
      "syn": 8662,
      "coats": 8663,
      "fret": 8664,
      "substit": 8665,
      "fools": 8666,
      "footsteps": 8667,
      "nervously": 8668,
      "wakes": 8669,
      "eighth": 8670,
      "sends": 8671,
      "coup": 8672,
      "struct": 8673,
      "media": 8674,
      "recognition": 8675,
      "protective": 8676,
      "tails": 8677,
      "filling": 8678,
      "snapped": 8679,
      "fourth": 8680,
      "winds": 8681,
      "drivers": 8682,
      "posted": 8683,
      "sticks": 8684,
      "expires": 8685,
      "kitten": 8686,
      "couples": 8687,
      "weirdest": 8688,
      "eyelid": 8689,
      "petition": 8690,
      "involve": 8691,
      "generations": 8692,
      "1950": 8693,
      "steadily": 8694,
      "pastime": 8695,
      "hideous": 8696,
      "attending": 8697,
      "cooler": 8698,
      "superb": 8699,
      "harmed": 8700,
      "popularity": 8701,
      "castles": 8702,
      "polished": 8703,
      "gases": 8704,
      "profits": 8705,
      "proficient": 8706,
      "sliced": 8707,
      "suffo": 8708,
      "projects": 8709,
      "supported": 8710,
      "slide": 8711,
      "guardian": 8712,
      "pedest": 8713,
      "electro": 8714,
      "ironic": 8715,
      "engineers": 8716,
      "vicious": 8717,
      "pretends": 8718,
      "admirer": 8719,
      "electrical": 8720,
      "equally": 8721,
      "egypt": 8722,
      "weaknesses": 8723,
      "hammered": 8724,
      "employed": 8725,
      "urgently": 8726,
      "fingerprints": 8727,
      "departed": 8728,
      "authors": 8729,
      "pleasures": 8730,
      "circus": 8731,
      "auditori": 8732,
      "bathe": 8733,
      "bathing": 8734,
      "hesitation": 8735,
      "majors": 8736,
      "cheering": 8737,
      "rubbish": 8738,
      "psyched": 8739,
      "stunning": 8740,
      "instinct": 8741,
      "pronoun": 8742,
      "forests": 8743,
      "insulting": 8744,
      "marriages": 8745,
      "defused": 8746,
      "programmer": 8747,
      "consulted": 8748,
      "communicated": 8749,
      "buddhis": 8750,
      "decorating": 8751,
      "decorations": 8752,
      "despised": 8753,
      "collar": 8754,
      "collided": 8755,
      "tiptoed": 8756,
      "desperately": 8757,
      "roller": 8758,
      "partial": 8759,
      "partially": 8760,
      "defective": 8761,
      "determination": 8762,
      "values": 8763,
      "trombone": 8764,
      "originally": 8765,
      "peeling": 8766,
      "splitting": 8767,
      "pinpoint": 8768,
      "brainer": 8769,
      "applications": 8770,
      "applicants": 8771,
      "methods": 8772,
      "pointing": 8773,
      "prayed": 8774,
      "tents": 8775,
      "occasions": 8776,
      "journalists": 8777,
      "impulsive": 8778,
      "bruised": 8779,
      "bruises": 8780,
      "crawled": 8781,
      "significantly": 8782,
      "opposition": 8783,
      "underestimated": 8784,
      "spinning": 8785,
      "biologist": 8786,
      "notify": 8787,
      "exaggerating": 8788,
      "chuckled": 8789,
      "grim": 8790,
      "pitcher": 8791,
      "titanic": 8792,
      "antiques": 8793,
      "antidote": 8794,
      "bacteria": 8795,
      "pyram": 8796,
      "texted": 8797,
      "seashore": 8798,
      "troubling": 8799,
      "environmental": 8800,
      "loyalty": 8801,
      "referring": 8802,
      "autopsy": 8803,
      "installed": 8804,
      "blinking": 8805,
      "intriguing": 8806,
      "browser": 8807,
      "grumpy": 8808,
      "analysis": 8809,
      "defenseless": 8810,
      "recession": 8811,
      "psychologist": 8812,
      "materialistic": 8813,
      "vitamin": 8814,
      "cockroach": 8815,
      "tanker": 8816,
      "prescription": 8817,
      "repeatedly": 8818,
      "obligated": 8819,
      "sexy": 8820,
      "irritating": 8821,
      "fetched": 8822,
      "precisely": 8823,
      "caroling": 8824,
      "additional": 8825,
      "civilization": 8826,
      "schol": 8827,
      "diabetic": 8828,
      "broadcast": 8829,
      "intolerant": 8830,
      "christians": 8831,
      "blanks": 8832,
      "sharpening": 8833,
      "leftover": 8834,
      "beneficial": 8835,
      "intimidated": 8836,
      "liquor": 8837,
      "exports": 8838,
      "toolbox": 8839,
      "1990": 8840,
      "sacrificed": 8841,
      "ingredients": 8842,
      "frying": 8843,
      "flunked": 8844,
      "transported": 8845,
      "reverse": 8846,
      "administration": 8847,
      "prophecy": 8848,
      "bridges": 8849,
      "humming": 8850,
      "balloon": 8851,
      "twisting": 8852,
      "analyze": 8853,
      "arisen": 8854,
      "ribbon": 8855,
      "perseverance": 8856,
      "choosing": 8857,
      "associate": 8858,
      "adapted": 8859,
      "moldy": 8860,
      "suffers": 8861,
      "prevail": 8862,
      "skimmed": 8863,
      "fractured": 8864,
      "firefighters": 8865,
      "flavor": 8866,
      "quote": 8867,
      "assignment": 8868,
      "disgrace": 8869,
      "handicapped": 8870,
      "sirens": 8871,
      "claustrophobic": 8872,
      "archaeologist": 8873,
      "kimon": 8874,
      "royal": 8875,
      "immigrants": 8876,
      "tragic": 8877,
      "deluding": 8878,
      "dramatic": 8879,
      "electron": 8880,
      "regulations": 8881,
      "portrait": 8882,
      "extinguished": 8883,
      "schizophrenic": 8884,
      "napoleon": 8885,
      "seventy": 8886,
      "unforgettable": 8887,
      "accomplice": 8888,
      "deleted": 8889,
      "preposterous": 8890,
      "fiancé": 8891,
      "courtesy": 8892,
      "auditorium": 8893,
      "1st": 8894,
      "26": 8895,
      "99": 8896,
      "ais": 8897,
      "adone": 8898,
      "aah": 8899,
      "bin": 8900,
      "bay": 8901,
      "cdon": 8902,
      "caf": 8903,
      "clist": 8904,
      "dous": 8905,
      "dair": 8906,
      "dled": 8907,
      "dirt": 8908,
      "eco": 8909,
      "erect": 8910,
      "eem": 8911,
      "fad": 8912,
      "ffe": 8913,
      "fame": 8914,
      "fice": 8915,
      "fles": 8916,
      "gin": 8917,
      "gus": 8918,
      "gible": 8919,
      "glimp": 8920,
      "hound": 8921,
      "ime": 8922,
      "jas": 8923,
      "kk": 8924,
      "kab": 8925,
      "kara": 8926,
      "knuck": 8927,
      "lind": 8928,
      "mcdon": 8929,
      "nag": 8930,
      "nies": 8931,
      "naught": 8932,
      "nagging": 8933,
      "oat": 8934,
      "ome": 8935,
      "oke": 8936,
      "olive": 8937,
      "pis": 8938,
      "pist": 8939,
      "pine": 8940,
      "porter": 8941,
      "pliers": 8942,
      "ron": 8943,
      "rad": 8944,
      "rink": 8945,
      "rhy": 8946,
      "rural": 8947,
      "slu": 8948,
      "scat": 8949,
      "swarm": 8950,
      "sling": 8951,
      "snuck": 8952,
      "tted": 8953,
      "treason": 8954,
      "vy": 8955,
      "vary": 8956,
      "wri": 8957,
      "wary": 8958,
      "yol": 8959,
      "yach": 8960,
      "yog": 8961,
      "zod": 8962,
      "thirst": 8963,
      "thical": 8964,
      "toad": 8965,
      "inated": 8966,
      "inspect": 8967,
      "inches": 8968,
      "incts": 8969,
      "inconsiderate": 8970,
      "reno": 8971,
      "refe": 8972,
      "reta": 8973,
      "repub": 8974,
      "retreat": 8975,
      "retires": 8976,
      "rehen": 8977,
      "recycl": 8978,
      "rescheduled": 8979,
      "rephrase": 8980,
      "theme": 8981,
      "attempting": 8982,
      "ana": 8983,
      "anity": 8984,
      "isco": 8985,
      "vene": 8986,
      "veled": 8987,
      "heap": 8988,
      "healed": 8989,
      "hectic": 8990,
      "metic": 8991,
      "medie": 8992,
      "melts": 8993,
      "metery": 8994,
      "asped": 8995,
      "ller": 8996,
      "itious": 8997,
      "oral": 8998,
      "orbit": 8999,
      "stated": 9000,
      "lease": 9001,
      "domin": 9002,
      "dodge": 9003,
      "welf": 9004,
      "wept": 9005,
      "western": 9006,
      "beck": 9007,
      "betical": 9008,
      "idal": 9009,
      "seiz": 9010,
      "liest": 9011,
      "licking": 9012,
      "lizes": 9013,
      "goof": 9014,
      "chilly": 9015,
      "areas": 9016,
      "donut": 9017,
      "roar": 9018,
      "rook": 9019,
      "rolling": 9020,
      "almon": 9021,
      "holly": 9022,
      "hokk": 9023,
      "allig": 9024,
      "forgi": 9025,
      "loot": 9026,
      "neath": 9027,
      "tipped": 9028,
      "tipsy": 9029,
      "solves": 9030,
      "espan": 9031,
      "adle": 9032,
      "oneer": 9033,
      "oneself": 9034,
      "gears": 9035,
      "geons": 9036,
      "ceo": 9037,
      "cemetery": 9038,
      "outlook": 9039,
      "ander": 9040,
      "unwell": 9041,
      "untrue": 9042,
      "uninteresting": 9043,
      "unclear": 9044,
      "uncertain": 9045,
      "unison": 9046,
      "unarmed": 9047,
      "unsuccessful": 9048,
      "unrealistic": 9049,
      "uninsured": 9050,
      "unforgi": 9051,
      "abated": 9052,
      "abhor": 9053,
      "abundant": 9054,
      "uscript": 9055,
      "acular": 9056,
      "bolt": 9057,
      "mow": 9058,
      "mock": 9059,
      "mocking": 9060,
      "ppers": 9061,
      "pel": 9062,
      "ima": 9063,
      "imply": 9064,
      "immort": 9065,
      "plexed": 9066,
      "shield": 9067,
      "shrugged": 9068,
      "utches": 9069,
      "uphill": 9070,
      "plor": 9071,
      "march": 9072,
      "marvel": 9073,
      "ami": 9074,
      "urt": 9075,
      "defic": 9076,
      "needn": 9077,
      "needless": 9078,
      "exposed": 9079,
      "extension": 9080,
      "letes": 9081,
      "lettu": 9082,
      "indis": 9083,
      "prose": 9084,
      "proven": 9085,
      "proposition": 9086,
      "probable": 9087,
      "justified": 9088,
      "concre": 9089,
      "qual": 9090,
      "quib": 9091,
      "reader": 9092,
      "ille": 9093,
      "illusion": 9094,
      "comics": 9095,
      "commotion": 9096,
      "raft": 9097,
      "deranged": 9098,
      "dynam": 9099,
      "peru": 9100,
      "perplexed": 9101,
      "arts": 9102,
      "artists": 9103,
      "epide": 9104,
      "newer": 9105,
      "newly": 9106,
      "idest": 9107,
      "spade": 9108,
      "spray": 9109,
      "premis": 9110,
      "premon": 9111,
      "preserve": 9112,
      "oused": 9113,
      "ously": 9114,
      "gums": 9115,
      "carved": 9116,
      "offs": 9117,
      "rowing": 9118,
      "backfire": 9119,
      "igrated": 9120,
      "buzz": 9121,
      "buckets": 9122,
      "chop": 9123,
      "wrink": 9124,
      "manuscript": 9125,
      "wool": 9126,
      "div": 9127,
      "diver": 9128,
      "divine": 9129,
      "orted": 9130,
      "surely": 9131,
      "bookcase": 9132,
      "angles": 9133,
      "angled": 9134,
      "busier": 9135,
      "undergo": 9136,
      "underneath": 9137,
      "stumbled": 9138,
      "applying": 9139,
      "apprehen": 9140,
      "misunderstand": 9141,
      "foreseen": 9142,
      "omin": 9143,
      "typist": 9144,
      "drain": 9145,
      "drained": 9146,
      "restri": 9147,
      "restrooms": 9148,
      "esteem": 9149,
      "assass": 9150,
      "household": 9151,
      "mentary": 9152,
      "clown": 9153,
      "closes": 9154,
      "overlooked": 9155,
      "disk": 9156,
      "disci": 9157,
      "disorganized": 9158,
      "discharged": 9159,
      "disloyal": 9160,
      "brat": 9161,
      "bron": 9162,
      "brag": 9163,
      "brass": 9164,
      "beforehand": 9165,
      "handful": 9166,
[...]
